const unsigned char crop_model_data[] = {0x20, 0x0, 0x0, 0x0, 0x54, 0x46, 0x4c, 0x33, 0x0, 0x0, 0x0, 0x0, 0x14, 0x0, 0x20, 0x0, 0x1c, 0x0, 0x18, 0x0, 0x14, 0x0, 0x10, 0x0, 0xc, 0x0, 0x0, 0x0, 0x8, 0x0, 0x4, 0x0, 0x14, 0x0, 0x0, 0x0, 0x1c, 0x0, 0x0, 0x0, 0x98, 0x0, 0x0, 0x0, 0xf0, 0x0, 0x0, 0x0, 0xe8, 0x1d, 0x0, 0x0, 0xf8, 0x1d, 0x0, 0x0, 0x48, 0x25, 0x0, 0x0, 0x3, 0x0, 0x0, 0x0, 0x1, 0x0, 0x0, 0x0, 0x10, 0x0, 0x0, 0x0, 0x0, 0x0, 0xa, 0x0, 0x10, 0x0, 0xc, 0x0, 0x8, 0x0, 0x4, 0x0, 0xa, 0x0, 0x0, 0x0, 0xc, 0x0, 0x0, 0x0, 0x1c, 0x0, 0x0, 0x0, 0x3c, 0x0, 0x0, 0x0, 0xf, 0x0, 0x0, 0x0, 0x73, 0x65, 0x72, 0x76, 0x69, 0x6e, 0x67, 0x5f, 0x64, 0x65, 0x66, 0x61, 0x75, 0x6c, 0x74, 0x0, 0x1, 0x0, 0x0, 0x0, 0x4, 0x0, 0x0, 0x0, 0x90, 0xff, 0xff, 0xff, 0xa, 0x0, 0x0, 0x0, 0x4, 0x0, 0x0, 0x0, 0x8, 0x0, 0x0, 0x0, 0x6f, 0x75, 0x74, 0x70, 0x75, 0x74, 0x5f, 0x30, 0x0, 0x0, 0x0, 0x0, 0x1, 0x0, 0x0, 0x0, 0x4, 0x0, 0x0, 0x0, 0xfe, 0xe1, 0xff, 0xff, 0x4, 0x0, 0x0, 0x0, 0xe, 0x0, 0x0, 0x0, 0x6b, 0x65, 0x72, 0x61, 0x73, 0x5f, 0x74, 0x65, 0x6e, 0x73, 0x6f, 0x72, 0x5f, 0x34, 0x0, 0x0, 0x2, 0x0, 0x0, 0x0, 0x34, 0x0, 0x0, 0x0, 0x4, 0x0, 0x0, 0x0, 0xdc, 0xff, 0xff, 0xff, 0xd, 0x0, 0x0, 0x0, 0x4, 0x0, 0x0, 0x0, 0x13, 0x0, 0x0, 0x0, 0x43, 0x4f, 0x4e, 0x56, 0x45, 0x52, 0x53, 0x49, 0x4f, 0x4e, 0x5f, 0x4d, 0x45, 0x54, 0x41, 0x44, 0x41, 0x54, 0x41, 0x0, 0x8, 0x0, 0xc, 0x0, 0x8, 0x0, 0x4, 0x0, 0x8, 0x0, 0x0, 0x0, 0xc, 0x0, 0x0, 0x0, 0x4, 0x0, 0x0, 0x0, 0x13, 0x0, 0x0, 0x0, 0x6d, 0x69, 0x6e, 0x5f, 0x72, 0x75, 0x6e, 0x74, 0x69, 0x6d, 0x65, 0x5f, 0x76, 0x65, 0x72, 0x73, 0x69, 0x6f, 0x6e, 0x0, 0xe, 0x0, 0x0, 0x0, 0xf4, 0x1c, 0x0, 0x0, 0xec, 0x1c, 0x0, 0x0, 0xdc, 0x15, 0x0, 0x0, 0xcc, 0x14, 0x0, 0x0, 0x3c, 0x14, 0x0, 0x0, 0xd4, 0x13, 0x0, 0x0, 0xc4, 0x8, 0x0, 0x0, 0xb4, 0x0, 0x0, 0x0, 0xac, 0x0, 0x0, 0x0, 0xa4, 0x0, 0x0, 0x0, 0x9c, 0x0, 0x0, 0x0, 0x94, 0x0, 0x0, 0x0, 0x74, 0x0, 0x0, 0x0, 0x4, 0x0, 0x0, 0x0, 0xb2, 0xe2, 0xff, 0xff, 0x4, 0x0, 0x0, 0x0, 0x60, 0x0, 0x0, 0x0, 0xc, 0x0, 0x0, 0x0, 0x8, 0x0, 0xe, 0x0, 0x8, 0x0, 0x4, 0x0, 0x8, 0x0, 0x0, 0x0, 0x10, 0x0, 0x0, 0x0, 0x28, 0x0, 0x0, 0x0, 0x0, 0x0, 0x6, 0x0, 0x8, 0x0, 0x4, 0x0, 0x6, 0x0, 0x0, 0x0, 0x4, 0x0, 0x0, 0x0, 0x1, 0x0, 0x0, 0x0, 0xea, 0x3, 0x0, 0x0, 0xc, 0x0, 0x18, 0x0, 0x14, 0x0, 0x10, 0x0, 0xc, 0x0, 0x4, 0x0, 0xc, 0x0, 0x0, 0x0, 0xa2, 0x9, 0xe, 0xb7, 0xd3, 0xc9, 0x65, 0x5e, 0x2, 0x0, 0x0, 0x0, 0x2, 0x0, 0x0, 0x0, 0x4, 0x0, 0x0, 0x0, 0x6, 0x0, 0x0, 0x0, 0x32, 0x2e, 0x31, 0x39, 0x2e, 0x30, 0x0, 0x0, 0x1e, 0xe3, 0xff, 0xff, 0x4, 0x0, 0x0, 0x0, 0x10, 0x0, 0x0, 0x0, 0x32, 0x2e, 0x31, 0x37, 0x2e, 0x30, 0x0, 0x0, 0x0, 0x0, 0x0, 0x0, 0x0, 0x0, 0x0, 0x0, 0x9c, 0xdc, 0xff, 0xff, 0xa0, 0xdc, 0xff, 0xff, 0xa4, 0xdc, 0xff, 0xff, 0xa8, 0xdc, 0xff, 0xff, 0x4a, 0xe3, 0xff, 0xff, 0x4, 0x0, 0x0, 0x0, 0x0, 0x8, 0x0, 0x0, 0x1d, 0x4e, 0xc8, 0x30, 0xd3, 0x12, 0xd6, 0xe7, 0xdd, 0xec, 0xe9, 0xe9, 0xfb, 0x22, 0xea, 0x46, 0x20, 0xe9, 0xc7, 0x49, 0x7f, 0x38, 0xff, 0xea, 0x37, 0xf3, 0x40, 0xf, 0xea, 0x2c, 0x37, 0x20, 0xf6, 0x2a, 0xf1, 0xc, 0x2b, 0xd7, 0xec, 0x3c, 0xe8, 0xc4, 0x14, 0xa, 0x13, 0xd, 0x19, 0xf9, 0x1b, 0xee, 0xcd, 0xd6, 0x4d, 0x0, 0x3b, 0x31, 0x2a, 0x2e, 0xdb, 0xf8, 0x22, 0x6, 0x36, 0x13, 0xfb, 0x2c, 0x3b, 0x8a, 0xe9, 0xef, 0x3f, 0xde, 0x95, 0x8c, 0x81, 0x33, 0x8d, 0xb9, 0xd, 0xa, 0xae, 0x5f, 0x4, 0x4c, 0x9b, 0x74, 0xfd, 0xeb, 0xee, 0x8e, 0x17, 0xda, 0xcb, 0x40, 0x94, 0xeb, 0x9e, 0xd1, 0x59, 0xa4, 0x27, 0x52, 0x8c, 0x8, 0x8b, 0x1a, 0x49, 0x0, 0x94, 0x6e, 0x6d, 0x6c, 0x46, 0x69, 0x37, 0x86, 0x59, 0xa7, 0x9a, 0x13, 0x24, 0xf4, 0xf8, 0xbf, 0x20, 0xe8, 0x93, 0x78, 0x36, 0x5, 0xbb, 0x32, 0x10, 0xa8, 0xd2, 0x9b, 0x90, 0x60, 0xb6, 0x44, 0x2b, 0xd8, 0x1a, 0xe4, 0xa, 0x4c, 0x3a, 0x5c, 0x35, 0xab, 0xd2, 0x30, 0xa2, 0x5c, 0x5, 0x81, 0x24, 0xe5, 0x1, 0xa3, 0xab, 0x92, 0xa0, 0x20, 0x27, 0x33, 0x53, 0x2c, 0x3f, 0x33, 0x4f, 0xed, 0xa2, 0xc9, 0xf2, 0xb7, 0xb, 0xd2, 0x10, 0xb3, 0xa3, 0xca, 0x54, 0x0, 0xb0, 0x2b, 0x25, 0x3f, 0xb4, 0x5a, 0xcd, 0x16, 0xf4, 0x2f, 0x49, 0x1c, 0x46, 0xd0, 0xb0, 0xef, 0x21, 0x2d, 0x56, 0xfe, 0x5, 0xe4, 0x47, 0x21, 0xc4, 0xf3, 0xfe, 0x7f, 0x3f, 0xf7, 0xf6, 0xc3, 0x8, 0x14, 0xd7, 0xdc, 0xc6, 0xdf, 0xed, 0xdf, 0xe6, 0xff, 0x28, 0x10, 0xf9, 0x1b, 0x60, 0x14, 0x3f, 0xa8, 0x3, 0x1d, 0x11, 0xba, 0x11, 0xa0, 0x1e, 0x13, 0x3f, 0xeb, 0xfa, 0x31, 0xdd, 0x2a, 0xac, 0xfe, 0x40, 0xb5, 0xc7, 0xe, 0x1f, 0xb6, 0xa2, 0xf9, 0x48, 0x78, 0x9e, 0x7, 0xb0, 0x1d, 0x88, 0xd8, 0x4b, 0x1e, 0xca, 0x2e, 0x65, 0xfc, 0xd9, 0x6e, 0x55, 0xe, 0xfb, 0xf7, 0x61, 0x49, 0x5e, 0x92, 0xe4, 0x81, 0x1a, 0xf8, 0xbc, 0x91, 0x33, 0x55, 0x5f, 0x59, 0x90, 0x48, 0x28, 0xa7, 0x5a, 0x16, 0xb4, 0x9c, 0x6a, 0x64, 0xb3, 0x7b, 0x68, 0x23, 0x93, 0xa5, 0x22, 0xca, 0x84, 0x65, 0xb7, 0x52, 0xe, 0x5c, 0xc5, 0x37, 0x48, 0xea, 0x23, 0xba, 0x1c, 0x6f, 0xac, 0x54, 0xac, 0x5f, 0x46, 0x3d, 0xc8, 0x93, 0x21, 0xe1, 0xd8, 0xb2, 0xab, 0x62, 0xbd, 0x51, 0x83, 0x90, 0x8d, 0xb, 0x47, 0xe8, 0x6a, 0x1, 0x7f, 0x6e, 0xbe, 0xa4, 0x39, 0x94, 0x36, 0x27, 0xff, 0x74, 0xe7, 0x8f, 0xd5, 0x91, 0x9a, 0x6e, 0x5a, 0x95, 0xba, 0xeb, 0xa, 0x1e, 0xbb, 0x6b, 0xdf, 0x32, 0x6c, 0x1a, 0xd8, 0x68, 0x84, 0xf2, 0x88, 0x58, 0xff, 0xbe, 0x41, 0xb, 0x9, 0xda, 0xfc, 0x50, 0x15, 0xd0, 0x13, 0xd2, 0xf2, 0x2c, 0xa, 0x1e, 0xd3, 0x7f, 0x9, 0x2c, 0x1c, 0x20, 0xda, 0xb, 0xe9, 0xea, 0xf9, 0xd9, 0x1c, 0x1, 0xd3, 0x2b, 0x16, 0x14, 0xf, 0xd3, 0x8, 0xea, 0xee, 0xf0, 0xec, 0x1e, 0xd5, 0xf5, 0x24, 0xd6, 0x14, 0xf8, 0xd3, 0xc4, 0x1, 0xe2, 0xf1, 0xef, 0x24, 0xf0, 0xf6, 0x21, 0x16, 0xf7, 0x0, 0xff, 0x6, 0x13, 0x16, 0xf9, 0x1, 0xd9, 0xa5, 0xf5, 0xf3, 0xab, 0xf7, 0x34, 0x60, 0xa4, 0x95, 0xdb, 0x5d, 0x5e, 0x4a, 0x36, 0xe8, 0x8c, 0x77, 0xe3, 0xf9, 0xd8, 0x70, 0x4e, 0x4, 0xa0, 0x46, 0x15, 0xc9, 0x75, 0x81, 0xfa, 0x48, 0x69, 0xe9, 0xa2, 0x62, 0x54, 0x3c, 0xed, 0x37, 0x91, 0xdb, 0x63, 0x29, 0x34, 0xa2, 0x92, 0xf4, 0xe5, 0xb, 0x49, 0xb4, 0xb3, 0xf6, 0xd6, 0xd, 0xe1, 0x6a, 0xe7, 0xce, 0x4b, 0xfd, 0x2e, 0xe2, 0x11, 0xc3, 0x40, 0xed, 0xfa, 0xeb, 0x2b, 0x49, 0xc4, 0x37, 0xb3, 0xce, 0xf5, 0xa8, 0xd0, 0xd7, 0x27, 0x37, 0xf0, 0xe0, 0xc6, 0xbc, 0xc, 0xbd, 0xfb, 0xe3, 0xf9, 0xe5, 0x27, 0x49, 0x23, 0xf1, 0xfe, 0xcd, 0x8, 0xd0, 0x2a, 0xf8, 0x37, 0xf, 0x1d, 0xd7, 0x7f, 0xd, 0x24, 0xfc, 0xeb, 0xe5, 0xbe, 0xfa, 0x4, 0xcb, 0xd8, 0x33, 0x22, 0x93, 0x1, 0x3c, 0x38, 0x37, 0xee, 0x3b, 0x4, 0x5d, 0xad, 0xe7, 0x8e, 0x39, 0x38, 0xc5, 0xb5, 0xe6, 0xf, 0xd9, 0x5e, 0x8, 0x2b, 0x32, 0xa6, 0xd5, 0x52, 0x5, 0xf0, 0xdd, 0x3c, 0x74, 0xbc, 0xfa, 0x2, 0x7, 0x17, 0x92, 0xd2, 0x93, 0xf7, 0xad, 0xc3, 0x5b, 0x9c, 0x64, 0x11, 0xf5, 0x5b, 0xb, 0xce, 0xcb, 0xb3, 0xd5, 0xe5, 0x61, 0x5d, 0xd7, 0x3d, 0x1c, 0x2a, 0x3c, 0x16, 0xcf, 0xc7, 0x7f, 0xff, 0xc9, 0x30, 0x0, 0x9b, 0x3f, 0x38, 0x23, 0xec, 0xf1, 0x7, 0xec, 0xcd, 0x7, 0xd2, 0xe8, 0xea, 0xc1, 0xfa, 0x81, 0xf9, 0xc, 0x15, 0xf6, 0xee, 0xec, 0x2b, 0x31, 0xf, 0xe2, 0x13, 0xf, 0x3, 0x15, 0x15, 0x18, 0xe3, 0xf2, 0x1e, 0x3, 0x17, 0xe2, 0x1a, 0x36, 0x15, 0xe9, 0xf3, 0x9f, 0x1d, 0xfd, 0x6, 0xf4, 0x12, 0xf2, 0x21, 0xf5, 0xea, 0xeb, 0xe, 0x15, 0x0, 0xf8, 0xef, 0xf5, 0xf9, 0xdf, 0xf5, 0xef, 0x16, 0x0, 0x1e, 0x1c, 0x2c, 0x2c, 0xee, 0x2c, 0x67, 0xaa, 0xf8, 0x18, 0xf3, 0xf0, 0xfc, 0xe7, 0x1d, 0x35, 0x52, 0xd3, 0xf2, 0x0, 0x9a, 0x17, 0x14, 0xad, 0xd, 0xc4, 0x18, 0x8, 0xec, 0xdf, 0x29, 0x5, 0xe6, 0x33, 0x1d, 0x1c, 0x27, 0x6, 0xc5, 0x35, 0xe, 0xf, 0x3c, 0xc6, 0xce, 0xd5, 0xd4, 0xd5, 0xf5, 0x24, 0xc7, 0xfb, 0x1c, 0x2c, 0x5, 0xc9, 0xc9, 0xf9, 0x2c, 0x7f, 0xed, 0x31, 0xea, 0xd3, 0x35, 0xca, 0xdd, 0xf0, 0xad, 0xd, 0xd4, 0xfc, 0x7, 0x27, 0x28, 0x1f, 0x11, 0xea, 0xf2, 0x15, 0x7f, 0xcf, 0x5, 0x34, 0xdb, 0xee, 0x1a, 0xda, 0xf0, 0x27, 0x26, 0x25, 0xb2, 0xd1, 0x35, 0x31, 0x37, 0xa, 0x22, 0xb, 0xcd, 0xea, 0xf1, 0xdf, 0xcc, 0x13, 0x2b, 0x37, 0x33, 0xdf, 0xfa, 0xe2, 0xe8, 0xbc, 0xac, 0x3, 0x18, 0xf1, 0x25, 0x37, 0x31, 0x32, 0x40, 0xcc, 0x3c, 0xfb, 0x33, 0x1, 0xf, 0x39, 0x3, 0xe6, 0x25, 0xff, 0xe7, 0xe6, 0x4, 0x2d, 0x5, 0x1d, 0x1a, 0x10, 0x1f, 0xbb, 0x81, 0x19, 0xd8, 0xee, 0x47, 0x66, 0x13, 0xec, 0xe1, 0xce, 0x21, 0x5, 0x21, 0x25, 0x28, 0x38, 0xcc, 0xf2, 0x19, 0xd5, 0x28, 0x47, 0x1f, 0xf0, 0xe4, 0x32, 0xd8, 0xdb, 0xe3, 0xda, 0x3, 0xf3, 0xe7, 0xf2, 0xf1, 0xf3, 0xc6, 0xb, 0x22, 0x30, 0x15, 0xbe, 0xdc, 0xde, 0xd6, 0xed, 0xf8, 0x8, 0x2f, 0x43, 0x81, 0xb2, 0xc, 0xc6, 0xd8, 0xb, 0xd, 0x5, 0x3c, 0xe1, 0xde, 0xfd, 0xcd, 0xea, 0x9e, 0xd0, 0x4, 0xf6, 0xc1, 0x59, 0xfc, 0x7, 0xfd, 0xcd, 0xdd, 0xdb, 0x2a, 0x25, 0xe1, 0x18, 0x2f, 0xe4, 0x1c, 0xe1, 0x23, 0xf1, 0x12, 0x51, 0xfd, 0x25, 0x31, 0xc, 0xf5, 0xcd, 0xdd, 0x34, 0x1b, 0x31, 0x35, 0xc1, 0x9, 0x3c, 0x22, 0x3, 0x15, 0xd3, 0x23, 0xd7, 0x3d, 0xcc, 0xc8, 0x24, 0xff, 0xb0, 0x32, 0xd7, 0xf0, 0x44, 0x3a, 0x2f, 0x39, 0xd1, 0xe2, 0xcf, 0xcd, 0xed, 0xb5, 0x28, 0x48, 0xd1, 0xb6, 0x34, 0x40, 0x2c, 0x1c, 0x3b, 0x18, 0x7, 0x0, 0x18, 0x15, 0xb6, 0xbf, 0x19, 0x29, 0x16, 0xf4, 0x4, 0xcd, 0x29, 0xef, 0xf8, 0x10, 0x4f, 0xf0, 0xc4, 0xf5, 0x2e, 0x2b, 0x35, 0xcb, 0xc, 0xec, 0xe0, 0x4d, 0xb7, 0xeb, 0x12, 0x0, 0x7f, 0x28, 0xa, 0xf7, 0xcc, 0xbe, 0x40, 0x3f, 0x34, 0xdc, 0xf1, 0x1a, 0x45, 0x20, 0x2c, 0x49, 0x8b, 0x2, 0x14, 0x28, 0xa9, 0xe8, 0x32, 0xde, 0x2f, 0xee, 0x25, 0x4a, 0x37, 0x16, 0xf6, 0xc4, 0xda, 0x1d, 0xc7, 0xe5, 0xec, 0xdf, 0xf2, 0x18, 0x2, 0xee, 0xeb, 0x4e, 0xd8, 0x1f, 0xe1, 0xfd, 0x40, 0xd4, 0xb6, 0x7f, 0xb, 0x11, 0x3, 0xe4, 0xd6, 0x60, 0xb3, 0x2d, 0xf5, 0x48, 0xe5, 0x18, 0xdb, 0xf, 0x43, 0x35, 0xbb, 0x1a, 0x8, 0xc9, 0x3a, 0x76, 0x15, 0x3, 0x52, 0xd, 0x6, 0x7f, 0x14, 0x32, 0xd3, 0x92, 0x89, 0x2b, 0x54, 0xe2, 0x5, 0xfd, 0xd4, 0xd5, 0x91, 0x87, 0x90, 0xe5, 0xf1, 0xf, 0xe2, 0xd6, 0x62, 0xdb, 0x90, 0xb2, 0x90, 0x11, 0xea, 0xd6, 0x37, 0xf2, 0x46, 0xd9, 0xa5, 0x92, 0x4e, 0xeb, 0xff, 0xe1, 0xa7, 0x29, 0xcf, 0xad, 0xa5, 0x28, 0x8c, 0x16, 0x8d, 0x35, 0xf7, 0x43, 0xe3, 0xd8, 0xb5, 0xc4, 0xd1, 0xdb, 0xe0, 0xf2, 0xe6, 0x37, 0xf5, 0xa8, 0x42, 0xf1, 0xde, 0xb0, 0x99, 0x20, 0xf0, 0xda, 0x44, 0x6a, 0x1f, 0x95, 0x9d, 0xb6, 0x8e, 0x5e, 0x30, 0xed, 0x48, 0x22, 0xf4, 0xcf, 0x4f, 0x5a, 0xc4, 0x1a, 0x34, 0xe0, 0xc1, 0x81, 0xd8, 0xdc, 0x47, 0x40, 0x42, 0x6e, 0x8e, 0x57, 0xe7, 0x65, 0xbe, 0x96, 0x58, 0x9d, 0x47, 0xb, 0x8f, 0x9d, 0x45, 0xc6, 0xc9, 0x51, 0xcc, 0xf7, 0xd4, 0x1c, 0x5e, 0xa3, 0x17, 0xdd, 0xf6, 0xf5, 0x23, 0x52, 0x13, 0x3, 0x52, 0x29, 0x5, 0x58, 0xf4, 0xc0, 0x56, 0x33, 0xc8, 0xc3, 0x1e, 0x81, 0x58, 0xe4, 0x5, 0x1, 0x48, 0xbc, 0xe5, 0xa9, 0xc9, 0x53, 0xdb, 0x7, 0xb7, 0x4a, 0xff, 0xca, 0xae, 0x4b, 0x3, 0x4a, 0x5b, 0x8, 0xee, 0xfc, 0xc3, 0x19, 0xa7, 0x4e, 0xd3, 0xee, 0x3b, 0x2c, 0xbc, 0xe0, 0x12, 0x31, 0x4f, 0xd0, 0x25, 0x1c, 0x36, 0x58, 0x1, 0x18, 0xee, 0xdf, 0x8c, 0xe0, 0x1d, 0x28, 0xd0, 0xe5, 0x9b, 0x81, 0x51, 0x3d, 0x93, 0x9d, 0xe, 0x2d, 0x2a, 0xa, 0xd7, 0xf, 0xc4, 0x18, 0x30, 0xd5, 0x9e, 0x29, 0xe6, 0x3f, 0xc6, 0xc0, 0xe9, 0xc3, 0xa2, 0xc0, 0xb7, 0xcd, 0x87, 0x13, 0x8a, 0x34, 0xd2, 0x2f, 0xb1, 0x3, 0xed, 0x47, 0xbf, 0x3d, 0xc2, 0xc6, 0x32, 0x53, 0xa7, 0xd3, 0xdb, 0xab, 0xdf, 0x5, 0x40, 0xc9, 0xba, 0xef, 0xf0, 0xe3, 0x98, 0x15, 0xff, 0xfc, 0xd3, 0x39, 0xcd, 0x3, 0x8c, 0x9d, 0xbd, 0x58, 0x27, 0x6, 0x3c, 0x12, 0x8a, 0x37, 0x1a, 0x60, 0x4, 0x9e, 0x8c, 0x86, 0xfd, 0x27, 0x96, 0x8c, 0x44, 0x78, 0xee, 0xf0, 0x2c, 0xea, 0x9f, 0xa0, 0x47, 0x6f, 0x4e, 0xe7, 0xfc, 0xcf, 0xa0, 0x13, 0x82, 0xaa, 0x66, 0xbe, 0xf3, 0x21, 0x9f, 0x7f, 0x4a, 0xcc, 0x38, 0xbd, 0x0, 0xbf, 0x69, 0xd7, 0x72, 0xe0, 0xa, 0x5e, 0x8b, 0xc2, 0xc8, 0xc4, 0x29, 0xb8, 0x18, 0xdf, 0xa4, 0xcc, 0xd5, 0xc0, 0xc8, 0xab, 0x29, 0x8b, 0xe5, 0x2d, 0x2f, 0xb4, 0x25, 0x43, 0x0, 0x6, 0xc0, 0x40, 0xfd, 0xe0, 0xf5, 0x1, 0x21, 0xf9, 0xe9, 0xc6, 0x16, 0x14, 0xf2, 0xdd, 0xd5, 0xc8, 0x40, 0x32, 0xfa, 0x7f, 0xf7, 0xc, 0x3c, 0x12, 0x1c, 0xe, 0x1a, 0xb4, 0xc5, 0x0, 0x30, 0x37, 0x25, 0x29, 0x2a, 0xca, 0x25, 0x3f, 0x11, 0xee, 0xb4, 0x81, 0xea, 0xf6, 0x3f, 0xfb, 0xb4, 0xbd, 0xf8, 0x28, 0xfc, 0x16, 0x41, 0xeb, 0xdb, 0x1e, 0xe7, 0x18, 0x47, 0xb7, 0x3e, 0x39, 0xf4, 0x2f, 0xae, 0xc2, 0x49, 0x50, 0xaa, 0xfb, 0xa, 0xd2, 0x39, 0x26, 0x50, 0x98, 0x27, 0x37, 0xb7, 0x30, 0xf6, 0x30, 0x8e, 0xae, 0xb, 0xc9, 0xd3, 0x1f, 0x1b, 0xf0, 0x5a, 0x8f, 0x37, 0x12, 0x1d, 0x1a, 0xd8, 0x3f, 0xc9, 0xcd, 0xad, 0xc8, 0xfc, 0xce, 0xfb, 0x6d, 0xec, 0xb6, 0x29, 0x6a, 0xe4, 0xf3, 0x31, 0xe6, 0x8b, 0xde, 0x75, 0x4d, 0x3b, 0xbe, 0x8a, 0xed, 0x40, 0x50, 0x65, 0x6, 0xeb, 0xe5, 0xef, 0xe8, 0x6, 0x5f, 0xa3, 0x58, 0xcc, 0xd7, 0xf4, 0xd3, 0x5c, 0xbb, 0xae, 0xdf, 0xfa, 0x4, 0xd1, 0xbb, 0x8c, 0x4e, 0x9d, 0x39, 0x3d, 0xab, 0x2e, 0xcf, 0x57, 0x81, 0xe5, 0xc4, 0x63, 0x54, 0xd6, 0x6f, 0xf3, 0xa2, 0xd, 0xae, 0x57, 0x22, 0x5, 0xeb, 0x5e, 0xfb, 0x1d, 0xc3, 0xf7, 0x2b, 0xb5, 0x3d, 0x32, 0x1a, 0xef, 0x73, 0x1f, 0x1, 0x41, 0x2d, 0xe0, 0x81, 0x36, 0xdf, 0xfe, 0xb, 0xc9, 0xc2, 0x36, 0xbe, 0x26, 0x2b, 0x47, 0x1a, 0x3b, 0xe6, 0xce, 0xef, 0x13, 0x38, 0x4d, 0x4c, 0x8, 0x21, 0xd7, 0xf5, 0x40, 0xe, 0xdd, 0x3e, 0xd5, 0x25, 0x24, 0x2e, 0x3e, 0x6c, 0x37, 0xb7, 0xc1, 0xf7, 0xf5, 0xe8, 0xf7, 0x3e, 0x39, 0x46, 0x70, 0xfb, 0x1a, 0xff, 0x1e, 0x29, 0x2e, 0x5, 0x1, 0xd2, 0x81, 0xc4, 0x9, 0x1, 0xf1, 0xe1, 0x2d, 0x37, 0x27, 0xc6, 0xcc, 0xba, 0x58, 0x3c, 0xe1, 0xd9, 0x11, 0x8, 0x31, 0x3b, 0x8, 0x24, 0x4, 0xb, 0xf2, 0xed, 0x33, 0xc4, 0x98, 0x38, 0xb5, 0xa, 0x3c, 0xec, 0xf8, 0xba, 0x1b, 0x3, 0x4, 0x0, 0xd8, 0xe4, 0x6c, 0x19, 0xf2, 0xe4, 0xcd, 0xcc, 0xb1, 0x50, 0xb7, 0x24, 0xdf, 0x41, 0xe2, 0xe4, 0xc7, 0xa2, 0x84, 0x67, 0x5e, 0x45, 0xb8, 0xb9, 0x5b, 0x87, 0x45, 0x8a, 0x7b, 0xfe, 0xbf, 0xa5, 0xcd, 0xa3, 0x86, 0x9d, 0xc4, 0x86, 0x3, 0x4f, 0x72, 0x2b, 0xfd, 0xbc, 0x26, 0xd0, 0x61, 0x1e, 0x6a, 0xfd, 0xb6, 0xea, 0x69, 0x48, 0xe7, 0x4f, 0xbe, 0x4f, 0xa5, 0x81, 0x21, 0xc5, 0xa7, 0xd3, 0xf7, 0x9c, 0xee, 0x6d, 0x85, 0x3, 0x64, 0x61, 0x4b, 0xa1, 0xca, 0x43, 0xc7, 0x55, 0xe0, 0x9b, 0xaf, 0x38, 0x41, 0xa0, 0xec, 0x63, 0xc4, 0x44, 0xe8, 0x15, 0xc0, 0x0, 0xf6, 0xc5, 0x55, 0x9d, 0xb8, 0x7f, 0x94, 0xca, 0x70, 0xcd, 0x2b, 0x0, 0x63, 0xff, 0xd1, 0x56, 0xcd, 0xd4, 0x3, 0xc0, 0x94, 0x58, 0x1, 0x45, 0xa8, 0x86, 0x76, 0xd6, 0xc1, 0xf, 0x1b, 0x4d, 0x4d, 0x12, 0x8f, 0xe2, 0xe7, 0x59, 0x5d, 0xd6, 0x8a, 0xc2, 0xc8, 0x74, 0x2f, 0x16, 0x95, 0x8f, 0x8e, 0x51, 0x8d, 0xc7, 0xda, 0xb, 0xd7, 0x4e, 0x4a, 0xbe, 0x67, 0x2a, 0xb, 0x1, 0x14, 0xf2, 0xf, 0x81, 0x2c, 0x2b, 0x21, 0x2, 0xf, 0xaf, 0x32, 0xd0, 0xc7, 0xf2, 0x6c, 0x4c, 0xc9, 0x2e, 0xb2, 0xe, 0xe0, 0xad, 0xb3, 0xe3, 0xba, 0x31, 0x54, 0xdb, 0x3b, 0x3, 0x6, 0xfb, 0x2, 0xbc, 0x23, 0x2e, 0xb, 0x94, 0x49, 0xf9, 0xc1, 0xc5, 0xe6, 0xf2, 0x3c, 0xd9, 0xa4, 0xaa, 0xa8, 0xfe, 0x4e, 0xee, 0xb1, 0x97, 0x32, 0xc7, 0x97, 0x9b, 0xb2, 0x1f, 0x1, 0x17, 0x90, 0xa1, 0x28, 0xb4, 0xc1, 0xba, 0x8f, 0xdb, 0x81, 0xc9, 0xfe, 0xdd, 0x87, 0xce, 0xe8, 0xa0, 0x1d, 0x81, 0x0, 0x25, 0xa, 0x33, 0xff, 0x98, 0x7f, 0x2e, 0x6f, 0x89, 0xdf, 0xb1, 0xbe, 0xbe, 0x7, 0x58, 0x7c, 0x54, 0xf0, 0x1e, 0xed, 0x75, 0x67, 0xeb, 0xec, 0x93, 0xb9, 0x17, 0x14, 0x17, 0x93, 0x84, 0x1, 0x6a, 0xe8, 0x65, 0x7f, 0x23, 0xa, 0xba, 0x7, 0x99, 0xa4, 0x5d, 0x4f, 0xf8, 0x55, 0xdf, 0x70, 0xbb, 0x8, 0xf2, 0x30, 0xe, 0x11, 0x6c, 0xa, 0x7, 0x8a, 0x44, 0x2b, 0x66, 0xf0, 0xce, 0x24, 0x27, 0xa3, 0xda, 0xc9, 0x7, 0x10, 0xd1, 0x4f, 0x6b, 0x64, 0xc6, 0x31, 0x22, 0xe4, 0xee, 0xb6, 0x52, 0x9f, 0x5f, 0xf2, 0x40, 0x14, 0xe0, 0x41, 0xbe, 0xfc, 0xdc, 0xe5, 0x9f, 0x56, 0x22, 0x8a, 0x9a, 0x23, 0x36, 0x56, 0xeb, 0xff, 0xff, 0x4, 0x0, 0x0, 0x0, 0x0, 0xb, 0x0, 0x0, 0xcc, 0xb1, 0x1d, 0x3e, 0x18, 0x1f, 0x7, 0x3d, 0x25, 0x92, 0x50, 0xbc, 0x43, 0x11, 0x85, 0xbe, 0xdb, 0xdd, 0x24, 0xbe, 0x79, 0x93, 0x84, 0x3e, 0xaf, 0xd9, 0x6f, 0x3e, 0xae, 0xd2, 0x4c, 0x3e, 0xa3, 0xd6, 0x2f, 0xbd, 0xd4, 0x1d, 0xf6, 0x3d, 0x9b, 0x1a, 0x6a, 0xbf, 0xe1, 0xf1, 0x35, 0x3e, 0x92, 0x47, 0x29, 0x3e, 0xd8, 0xce, 0x9, 0xbf, 0xb4, 0xce, 0x9e, 0xbd, 0xaf, 0xd4, 0xab, 0x3d, 0xe6, 0x10, 0x8b, 0x3d, 0x5b, 0x6e, 0x9d, 0x3e, 0x43, 0x92, 0x5a, 0xbe, 0x72, 0xf6, 0x1e, 0xbe, 0x19, 0xea, 0x38, 0xbe, 0x26, 0xa6, 0x16, 0x3e, 0x8f, 0x1e, 0x8f, 0xbe, 0xba, 0xf4, 0xcd, 0xbd, 0xac, 0x5c, 0x67, 0xbe, 0x6c, 0x8f, 0xc7, 0x3d, 0x8e, 0x4d, 0x64, 0x3e, 0x96, 0xa8, 0x65, 0x3e, 0x52, 0x89, 0x6b, 0xbe, 0x98, 0x49, 0x9c, 0x3d, 0xd6, 0x8a, 0x15, 0xbe, 0xe8, 0x80, 0x90, 0x3e, 0xdd, 0xc7, 0xbc, 0xbc, 0xcc, 0x50, 0xe6, 0xbd, 0xc8, 0x7d, 0x9c, 0x3e, 0x91, 0xc3, 0x9a, 0x3b, 0x86, 0x97, 0x65, 0x3c, 0x7a, 0x83, 0xc, 0x3e, 0x99, 0x79, 0xdc, 0x3d, 0x6b, 0x42, 0x21, 0x3e, 0xd, 0x25, 0x14, 0xbd, 0x71, 0xeb, 0x0, 0xbf, 0x66, 0x40, 0x1d, 0xbf, 0x33, 0xa7, 0x4a, 0xbd, 0x76, 0xca, 0x89, 0xbe, 0xcd, 0x4a, 0xdd, 0xbe, 0xa6, 0xb, 0x0, 0x3e, 0x41, 0x6f, 0x78, 0x3d, 0x1f, 0x31, 0xb4, 0x3e, 0xd9, 0xe8, 0xa2, 0x3e, 0x9a, 0xca, 0xae, 0x3c, 0x1c, 0x14, 0xb, 0x3e, 0xa9, 0x79, 0x8d, 0x3e, 0xab, 0x2c, 0x61, 0xbe, 0xdb, 0xc1, 0xe4, 0x3d, 0x14, 0xae, 0x91, 0x3e, 0xda, 0x87, 0x29, 0x3b, 0x9d, 0x21, 0x99, 0x3d, 0xd6, 0x98, 0x96, 0x3e, 0x2c, 0x9f, 0x9f, 0xbd, 0xc1, 0x81, 0xb2, 0xbd, 0xab, 0xf2, 0x4d, 0x3e, 0xd0, 0xee, 0xba, 0x3c, 0x84, 0x8c, 0xb, 0xbc, 0xb5, 0xc, 0xad, 0xbd, 0x4c, 0xff, 0xdf, 0x3d, 0xcd, 0x77, 0xe7, 0x3d, 0x5e, 0x78, 0x65, 0x3e, 0xba, 0x3a, 0x60, 0x3e, 0x66, 0x38, 0x52, 0xbe, 0x1f, 0x4b, 0x88, 0xbe, 0x40, 0xaa, 0x76, 0xbd, 0x4d, 0x5a, 0xf8, 0x3e, 0x1e, 0x79, 0x9e, 0xbe, 0x16, 0x15, 0xa2, 0xbd, 0x31, 0xd8, 0xbf, 0xbe, 0x35, 0x38, 0x1b, 0xbe, 0xc9, 0x30, 0x3b, 0xbd, 0xe3, 0x72, 0x24, 0xbd, 0x6e, 0xa9, 0xb8, 0x3c, 0x7d, 0x1c, 0x8a, 0x3d, 0xd1, 0x19, 0x86, 0x3e, 0xb3, 0x63, 0x47, 0xbd, 0xb9, 0x7a, 0xd, 0x3d, 0x85, 0x42, 0xd2, 0x3d, 0x0, 0x5f, 0x52, 0x3d, 0xd, 0xfd, 0x3f, 0x3e, 0x12, 0x2, 0x83, 0x3e, 0x88, 0xb5, 0x83, 0xbe, 0xe8, 0x82, 0x9c, 0xbe, 0x61, 0x68, 0x61, 0x3e, 0xfb, 0xe4, 0x95, 0xbe, 0x92, 0x5c, 0x6e, 0xbc, 0x5f, 0xa2, 0x66, 0xbe, 0xf6, 0x8, 0x94, 0xbe, 0xe7, 0xbb, 0x9b, 0xbd, 0x9d, 0xba, 0xa2, 0x3e, 0xf0, 0x2, 0x8, 0xbe, 0x41, 0x48, 0x88, 0x3e, 0x6f, 0x22, 0x7c, 0xbe, 0x36, 0xf6, 0x6e, 0xbe, 0x8c, 0x4b, 0xe1, 0x3d, 0x97, 0x29, 0x2e, 0xbe, 0x8a, 0xe7, 0x22, 0x3e, 0x97, 0x1, 0xfc, 0xbe, 0xe5, 0x0, 0x77, 0x3d, 0xef, 0x88, 0x42, 0xbf, 0x4e, 0xad, 0xf6, 0xbd, 0x9c, 0xb4, 0x39, 0x3d, 0x1f, 0x7b, 0xd7, 0xbe, 0xf8, 0xba, 0x86, 0x3e, 0xdb, 0xe6, 0x1d, 0x3e, 0xfb, 0x58, 0x24, 0x3e, 0x68, 0xe9, 0x6a, 0xbd, 0x36, 0xd9, 0xb3, 0x3d, 0xc5, 0x16, 0x63, 0x3b, 0xcf, 0xcd, 0xce, 0xbd, 0x46, 0xf5, 0x16, 0x3e, 0x59, 0xe4, 0xa7, 0xbc, 0x2c, 0x6e, 0xc3, 0x3d, 0x80, 0x13, 0x17, 0xbd, 0x4b, 0x94, 0x92, 0xbe, 0x8a, 0xa4, 0x66, 0x3e, 0x40, 0x13, 0x63, 0xbd, 0x18, 0x35, 0x71, 0x3e, 0x6f, 0x6e, 0xaa, 0xbe, 0xc, 0x41, 0xa9, 0x3d, 0x1c, 0x60, 0x28, 0x3e, 0xf7, 0xf9, 0x65, 0x3e, 0x6a, 0xf7, 0x31, 0x3e, 0xd3, 0x65, 0x8e, 0x3e, 0xdf, 0xb6, 0x4a, 0x3e, 0x58, 0xfe, 0xb7, 0x3d, 0xb0, 0x71, 0xb7, 0xbc, 0x86, 0xda, 0x47, 0xbe, 0x46, 0x15, 0xc, 0xbe, 0xc1, 0xb9, 0xde, 0xbe, 0xc2, 0xbd, 0x42, 0x3d, 0xe7, 0xd5, 0x22, 0x3e, 0xef, 0xd0, 0x35, 0xbe, 0x14, 0x91, 0xcd, 0xbd, 0x13, 0x3a, 0x63, 0x3e, 0x97, 0x7c, 0xcd, 0xbc, 0x3b, 0x2f, 0x30, 0xbd, 0xf1, 0xf0, 0x6d, 0x3e, 0x26, 0x53, 0x9c, 0xbe, 0x9f, 0x6a, 0x12, 0x3e, 0x1a, 0xb2, 0x8e, 0x3d, 0xd7, 0x7a, 0x1c, 0x3d, 0x40, 0xd2, 0x6a, 0x3d, 0x59, 0xdd, 0xd3, 0x3e, 0xd, 0xd7, 0x1, 0xbd, 0x95, 0x98, 0x82, 0x3d, 0x30, 0x58, 0x9, 0xbe, 0xb7, 0x68, 0x2a, 0xbf, 0xcc, 0x82, 0xa7, 0xbd, 0xa8, 0xd3, 0x1e, 0xbd, 0x4e, 0x4e, 0xfd, 0x3d, 0x94, 0xdd, 0x8f, 0xbd, 0x38, 0xe0, 0x57, 0xbe, 0xed, 0x80, 0x3d, 0x3e, 0x9b, 0x4b, 0x5a, 0xbe, 0x66, 0xdd, 0x50, 0xbd, 0xb9, 0x26, 0x56, 0x3e, 0x6c, 0x4b, 0x6f, 0xbe, 0x30, 0xf8, 0x91, 0xbe, 0x8e, 0x12, 0x6, 0x3d, 0xe0, 0xfe, 0x1a, 0xbe, 0x98, 0x4c, 0x4, 0xbf, 0x65, 0xdc, 0x30, 0x3e, 0x25, 0x56, 0xfb, 0xbe, 0x6f, 0x2d, 0x44, 0xbe, 0x4b, 0x64, 0x93, 0xbe, 0xf5, 0xfd, 0x70, 0xbe, 0x9e, 0x65, 0xe7, 0xbe, 0xa4, 0x11, 0x3a, 0xbe, 0x58, 0xad, 0xbe, 0x3d, 0x40, 0x8e, 0xb1, 0xbd, 0xbf, 0x86, 0x52, 0xbe, 0xc2, 0x50, 0xc2, 0x3c, 0x3f, 0x58, 0x89, 0xbd, 0x92, 0xec, 0x3a, 0x3e, 0xf9, 0x6, 0x33, 0xbe, 0xdc, 0x67, 0xba, 0xbe, 0x7a, 0xda, 0xdf, 0xbd, 0x86, 0x95, 0xca, 0x3d, 0xeb, 0x96, 0x3, 0x3f, 0xea, 0x7e, 0x7, 0x3e, 0x3e, 0xea, 0x29, 0x3e, 0x25, 0x21, 0x88, 0x3d, 0x26, 0x19, 0x1d, 0x3e, 0x14, 0x3d, 0xad, 0x3e, 0x73, 0xcc, 0x9f, 0x3e, 0x80, 0xa, 0x9, 0xbe, 0xa3, 0xb5, 0x85, 0x3e, 0xaa, 0x6, 0xea, 0xbd, 0x5a, 0x83, 0x2b, 0xbc, 0x30, 0x37, 0x9e, 0xbe, 0xf1, 0x97, 0x87, 0x3e, 0xfa, 0x3a, 0x25, 0x3e, 0x4d, 0x75, 0xa7, 0xbe, 0x48, 0x2c, 0xa7, 0xbe, 0x7, 0xeb, 0x1, 0xbe, 0x4c, 0x94, 0x81, 0x3e, 0xc7, 0xb2, 0x3, 0xbd, 0xa9, 0x43, 0xaa, 0xbe, 0xc7, 0xbd, 0xd4, 0x3d, 0x6, 0xcf, 0x2d, 0x3d, 0x32, 0xcd, 0xcf, 0xbe, 0xcc, 0x99, 0xe2, 0x3d, 0x2d, 0x2f, 0x5a, 0x3e, 0x42, 0x54, 0x15, 0x3c, 0xc9, 0x97, 0x4f, 0x3e, 0x40, 0xc0, 0x74, 0xbd, 0x68, 0x3e, 0x3b, 0x3e, 0x9, 0xe0, 0xa3, 0x3e, 0x89, 0xdc, 0x94, 0xbe, 0xd4, 0x94, 0x84, 0x3e, 0x5, 0x81, 0x48, 0xbc, 0xd0, 0x82, 0x3e, 0xbe, 0x41, 0x54, 0x60, 0x3e, 0x6b, 0x88, 0x3e, 0x3d, 0x50, 0x47, 0x28, 0xbe, 0x54, 0x2f, 0xbd, 0xbe, 0xc9, 0xc9, 0x4c, 0x3e, 0xb0, 0xee, 0xe4, 0xbc, 0x74, 0x8, 0x2e, 0xbe, 0x9, 0x93, 0x84, 0x3d, 0x6d, 0x58, 0x97, 0xbe, 0xa0, 0x62, 0x1f, 0x3e, 0x3c, 0xca, 0x32, 0x3e, 0x6d, 0x96, 0x84, 0x3e, 0x5b, 0x1e, 0xba, 0xbe, 0x21, 0x43, 0x1c, 0xbe, 0xff, 0x6e, 0x9e, 0xbe, 0x31, 0xde, 0x84, 0x3e, 0xb1, 0x98, 0xbd, 0x3c, 0x7d, 0x33, 0x1e, 0xbe, 0x87, 0xa5, 0xb9, 0x3e, 0x6b, 0x51, 0x53, 0x3e, 0x5e, 0x16, 0x3a, 0x3e, 0x80, 0xec, 0x4b, 0xbd, 0xdc, 0x5a, 0xe3, 0xbd, 0xab, 0x22, 0xde, 0x3d, 0x81, 0xaa, 0x36, 0xbd, 0x16, 0x79, 0xf7, 0xbd, 0x83, 0x4e, 0xe0, 0xbb, 0x2d, 0xb3, 0x96, 0x3d, 0x79, 0xca, 0x72, 0x3d, 0xe5, 0x26, 0x4, 0x3e, 0x14, 0x2d, 0x5a, 0xbe, 0x66, 0x1, 0x19, 0xbe, 0x42, 0x93, 0x87, 0x3e, 0x82, 0x5a, 0xbe, 0xbe, 0xb0, 0x7f, 0x8c, 0x3c, 0xb2, 0x70, 0x4c, 0x3d, 0xd4, 0xc2, 0xa1, 0xbe, 0x10, 0x8b, 0x6e, 0xbe, 0xb6, 0xb7, 0x7e, 0x3d, 0xfc, 0x2f, 0x5c, 0x3e, 0x9d, 0xb7, 0xa0, 0xbd, 0x34, 0x8a, 0x89, 0xbd, 0xe8, 0xd8, 0x50, 0xbe, 0x87, 0xad, 0x5a, 0xbe, 0x9d, 0x70, 0xb7, 0xbe, 0xc4, 0x92, 0xb1, 0x3e, 0x5f, 0x4e, 0xbe, 0xbc, 0x3d, 0x7e, 0x8c, 0x3e, 0x16, 0x53, 0x75, 0x3e, 0xb5, 0x92, 0x40, 0x3d, 0x27, 0x7, 0x64, 0xbe, 0xbd, 0x49, 0x87, 0xbd, 0x94, 0x2c, 0xd9, 0xbd, 0xc0, 0xaf, 0x42, 0xbe, 0x54, 0x21, 0x18, 0x3e, 0x5f, 0xeb, 0x78, 0xbe, 0x5f, 0xc4, 0xa3, 0xbe, 0xb0, 0xb8, 0xe, 0x3e, 0x9b, 0x1, 0x7, 0x3e, 0xbc, 0x93, 0x8c, 0x3e, 0x2b, 0x9e, 0x20, 0xbe, 0x1b, 0xfd, 0x95, 0x3c, 0x39, 0x48, 0x9, 0x3e, 0xe8, 0x5a, 0x1f, 0x3d, 0xf7, 0x19, 0xa3, 0xbe, 0xe, 0xc9, 0x1d, 0xbe, 0xc0, 0xaf, 0x68, 0xbe, 0xed, 0x64, 0x82, 0x3d, 0x7, 0xd0, 0xe4, 0xbd, 0x30, 0x32, 0x5c, 0xbe, 0xae, 0xd9, 0x3b, 0xbc, 0x3d, 0x3b, 0x86, 0xbe, 0xbc, 0x5a, 0x85, 0x3c, 0x34, 0xce, 0x94, 0xbd, 0xb7, 0x38, 0xaf, 0x3e, 0x3c, 0x2b, 0x83, 0x3d, 0xf4, 0x8f, 0x81, 0xbe, 0x75, 0xc5, 0x8c, 0xbe, 0x8e, 0xff, 0x8b, 0xbe, 0xd4, 0x66, 0x80, 0xbe, 0xbd, 0x6b, 0xad, 0x3d, 0x92, 0xed, 0x32, 0xbe, 0xdb, 0x8b, 0x9, 0xbe, 0x1, 0xec, 0xe0, 0x3e, 0x4, 0xbf, 0xb3, 0x3e, 0x3a, 0x14, 0x0, 0x3e, 0xbb, 0x43, 0xb5, 0x3d, 0x9e, 0x9f, 0x95, 0x3c, 0x71, 0xb5, 0x1a, 0xbe, 0x7b, 0x63, 0x41, 0xbe, 0xab, 0x27, 0x7a, 0xbe, 0x28, 0xa0, 0x33, 0x3e, 0xa1, 0x2d, 0x94, 0xbc, 0xb3, 0xcd, 0x9b, 0xbe, 0x5b, 0xb6, 0xa3, 0x3d, 0x8c, 0x41, 0xc2, 0x3d, 0x4c, 0x93, 0x2d, 0xbe, 0x83, 0x66, 0x48, 0x3d, 0x9a, 0xfd, 0x57, 0x3e, 0x2f, 0x19, 0x86, 0x3d, 0x54, 0xb5, 0xb, 0xbf, 0x5a, 0x27, 0x45, 0x3e, 0x82, 0xd4, 0xc8, 0xbc, 0xb3, 0x2, 0x97, 0x3e, 0x74, 0x67, 0x1e, 0xbe, 0xb4, 0x1b, 0xa4, 0xbd, 0x5b, 0xe8, 0x4b, 0x3d, 0xdb, 0xb0, 0x6d, 0xbe, 0xb, 0x38, 0xbc, 0x3e, 0xf4, 0xd6, 0xea, 0xbe, 0x60, 0x2d, 0xe5, 0xbd, 0x9, 0x12, 0x12, 0x3f, 0x2f, 0xf6, 0x60, 0xbe, 0x6d, 0x6d, 0x84, 0xbe, 0xfd, 0xe9, 0xb9, 0x3c, 0xc9, 0x81, 0xad, 0xbe, 0x84, 0xb9, 0x76, 0x3e, 0x46, 0xfe, 0x3c, 0x3e, 0x18, 0xd9, 0x8d, 0x3d, 0xe9, 0x3c, 0x9b, 0xbd, 0x0, 0xc, 0x59, 0xbd, 0xc0, 0xc, 0xcf, 0xbd, 0x26, 0x6a, 0x12, 0xbc, 0xa, 0xa2, 0xa1, 0xbd, 0xed, 0xdb, 0x56, 0x3e, 0x4e, 0xfc, 0xfd, 0xbd, 0xd0, 0x6e, 0xcc, 0x3d, 0x2e, 0x56, 0x86, 0xbe, 0x1a, 0x4d, 0xa1, 0xbe, 0x1a, 0x7, 0xd1, 0xbd, 0x36, 0xa9, 0x28, 0xbe, 0xd1, 0x88, 0x46, 0xbd, 0xb, 0x11, 0xac, 0xbd, 0xd8, 0xa2, 0x20, 0xbd, 0x68, 0x95, 0x34, 0xbe, 0xaf, 0x1b, 0x81, 0xbe, 0x16, 0x5f, 0x1, 0x3e, 0x36, 0x41, 0xd, 0xbe, 0xa1, 0x64, 0x5a, 0xbe, 0xa2, 0x2e, 0x4f, 0x3e, 0x47, 0x9b, 0x44, 0xbd, 0xfd, 0x69, 0x97, 0xbe, 0x52, 0x5b, 0x61, 0x3e, 0x9, 0xa3, 0x14, 0xbf, 0xf1, 0x21, 0x1e, 0xbe, 0x30, 0xc2, 0x3e, 0x3d, 0xa5, 0x87, 0x83, 0xbf, 0xfa, 0x6a, 0xe8, 0xbd, 0x44, 0x91, 0xa7, 0xbd, 0xa6, 0x64, 0x72, 0xbe, 0x59, 0x2d, 0x87, 0x3c, 0x4f, 0x71, 0xd7, 0xbd, 0x7f, 0x11, 0x2, 0x3e, 0xc, 0xf0, 0xcd, 0x3d, 0xba, 0xf8, 0x41, 0xbe, 0xbc, 0x71, 0x55, 0x3e, 0x41, 0x14, 0x47, 0xbe, 0x9, 0xa4, 0x33, 0x3e, 0x99, 0x95, 0xa6, 0x3e, 0x9b, 0x85, 0x77, 0xbe, 0x23, 0x11, 0xc, 0xbe, 0x6e, 0x5c, 0xe3, 0xbd, 0x36, 0x2d, 0x31, 0xbe, 0x68, 0x23, 0xa, 0xbe, 0xff, 0xf0, 0xd0, 0x3e, 0x28, 0xf0, 0x7b, 0xbd, 0xc3, 0x3c, 0x9a, 0xbe, 0x2f, 0xad, 0x0, 0xbe, 0xa8, 0xae, 0x5e, 0xbd, 0x16, 0x87, 0x5, 0xbe, 0x17, 0x81, 0xfe, 0x3b, 0x7e, 0xc9, 0x8c, 0xbe, 0xbb, 0xf6, 0x43, 0xbf, 0xc7, 0xef, 0x98, 0x3e, 0x41, 0x27, 0xb6, 0x3e, 0xee, 0xf9, 0xa3, 0xbe, 0xb5, 0xa9, 0x53, 0x3e, 0x78, 0x48, 0x8, 0xbf, 0xb0, 0x96, 0xca, 0x3d, 0xa1, 0xd5, 0xd2, 0xbd, 0x8, 0xd0, 0x9a, 0x3e, 0xcc, 0xf5, 0x9b, 0x3d, 0xbd, 0x89, 0x59, 0x3d, 0x5e, 0xbd, 0x37, 0xbd, 0x9b, 0x5, 0x38, 0x3e, 0x20, 0x1, 0x89, 0xbd, 0xe1, 0xce, 0x8e, 0xbe, 0x41, 0x90, 0x71, 0xbe, 0x49, 0x95, 0x23, 0xbe, 0xde, 0x79, 0x63, 0xbe, 0x9d, 0x41, 0x6, 0xbc, 0x36, 0xdc, 0xfd, 0xbd, 0xe9, 0xda, 0x7, 0x3c, 0xf, 0xfe, 0x5a, 0xbe, 0xd0, 0x4, 0xca, 0xbc, 0x6, 0x31, 0x79, 0x3e, 0x9e, 0xb4, 0x4a, 0x3e, 0xeb, 0x11, 0x9a, 0xbe, 0x27, 0xd9, 0xa6, 0x3e, 0xff, 0x3f, 0x19, 0xbd, 0x71, 0x8f, 0x44, 0xbc, 0xf6, 0xe8, 0x35, 0xbe, 0xa6, 0xf1, 0x9d, 0xbe, 0x78, 0x6, 0x31, 0xbe, 0x9b, 0xdd, 0x61, 0x3d, 0x40, 0xc1, 0xf1, 0xbd, 0x36, 0xd7, 0x39, 0x3e, 0x74, 0x93, 0x2f, 0x3e, 0x75, 0x7b, 0x43, 0x3e, 0x6b, 0xd0, 0x23, 0xbd, 0x4c, 0xcb, 0xcf, 0x3e, 0x5f, 0xc9, 0xa8, 0xbe, 0xa7, 0x8, 0x80, 0x3e, 0x30, 0xa1, 0x8e, 0xbc, 0x62, 0x8f, 0x33, 0xbe, 0x4, 0xb9, 0x41, 0x3e, 0x71, 0x63, 0xcc, 0x3d, 0xb6, 0xd6, 0x6, 0x3e, 0x59, 0xaa, 0x13, 0xbe, 0xde, 0x4e, 0xc8, 0xbe, 0x8d, 0xfc, 0xfe, 0xbd, 0xe7, 0x77, 0x91, 0xbe, 0x2e, 0x20, 0x85, 0x3e, 0x46, 0x29, 0x49, 0x3e, 0xf, 0x84, 0xbf, 0x3d, 0xd2, 0xb3, 0x91, 0x3e, 0xc6, 0xa9, 0x48, 0xbe, 0xfe, 0x4, 0xd6, 0xbd, 0xc7, 0x77, 0x79, 0xbe, 0x20, 0xb7, 0x91, 0xbe, 0x7e, 0x38, 0x2e, 0xbe, 0xe, 0x25, 0x45, 0xbd, 0x3d, 0x78, 0x15, 0xbe, 0x73, 0x9e, 0x9b, 0x3e, 0x21, 0xfc, 0xea, 0xbd, 0x2c, 0x0, 0x82, 0x3d, 0x41, 0x5a, 0x62, 0x3e, 0x7b, 0xd3, 0x21, 0x3e, 0x13, 0xa1, 0xd9, 0x3d, 0xe3, 0x61, 0x7, 0x3d, 0xaa, 0x1, 0xa8, 0x3d, 0xe5, 0x56, 0xde, 0x3e, 0x26, 0x3b, 0x42, 0xbf, 0xa4, 0x16, 0xce, 0x3d, 0xd, 0xfd, 0x3, 0xbe, 0x30, 0xb4, 0x8b, 0x3c, 0x45, 0xcd, 0x79, 0x3d, 0x47, 0xba, 0xcf, 0x3d, 0xf7, 0x33, 0xe6, 0xbc, 0xfb, 0x10, 0x7f, 0xbe, 0x65, 0x5b, 0xa3, 0xbd, 0x5b, 0x57, 0x4c, 0x3d, 0x44, 0x61, 0x59, 0x3e, 0xa6, 0xb, 0x9b, 0x3e, 0xfe, 0xf6, 0x88, 0xbe, 0x28, 0x8f, 0x38, 0x3d, 0x55, 0x85, 0xd, 0xbe, 0x71, 0xee, 0xd9, 0xbd, 0xa0, 0xf, 0x55, 0xbe, 0x6a, 0xb5, 0xf6, 0xbc, 0x73, 0xd, 0xc, 0x3e, 0x10, 0xdb, 0x3a, 0xbe, 0x2f, 0xd7, 0x22, 0xbc, 0x86, 0x3a, 0x4e, 0x3e, 0xea, 0xd1, 0x73, 0xbe, 0x30, 0x5b, 0x47, 0xbe, 0xb2, 0x34, 0xb5, 0xbe, 0xfa, 0x7, 0x3a, 0x3e, 0xe8, 0xf, 0x29, 0x3e, 0x69, 0xbf, 0xc3, 0xbe, 0xdb, 0x5c, 0x59, 0xbf, 0xba, 0x15, 0x34, 0x3e, 0xd7, 0x93, 0x8c, 0xbe, 0x38, 0x16, 0x2d, 0x3e, 0xe4, 0xfa, 0x5b, 0x3e, 0x98, 0x9, 0x2b, 0xbe, 0xc9, 0xc1, 0x8, 0xbe, 0xcb, 0xeb, 0xa6, 0x3e, 0x84, 0x35, 0x9a, 0xbe, 0x72, 0xbc, 0x2d, 0xbe, 0x11, 0xe9, 0xf6, 0xbc, 0xf6, 0xbd, 0xbb, 0xbd, 0x2, 0x8d, 0xae, 0xbe, 0xd6, 0x9e, 0xb1, 0xbe, 0xc3, 0x68, 0x8d, 0x3d, 0x9a, 0xde, 0x92, 0x3e, 0x1c, 0x79, 0xef, 0xbe, 0xfd, 0xbe, 0x90, 0x3e, 0xa3, 0xc3, 0x35, 0xbe, 0x0, 0xb8, 0x68, 0x3e, 0xf4, 0xab, 0x9d, 0x3d, 0x2, 0x46, 0x2a, 0x3e, 0xd6, 0x4e, 0x8, 0x3a, 0xd6, 0xdc, 0x5a, 0xbe, 0x20, 0x16, 0x46, 0x3e, 0xe9, 0x2b, 0x7e, 0xbd, 0x8c, 0x80, 0x92, 0xbc, 0x16, 0xb2, 0x78, 0xbe, 0xd8, 0x31, 0x8, 0x3c, 0x49, 0xa0, 0x10, 0xbb, 0xf6, 0x86, 0x75, 0x3e, 0x87, 0x30, 0x15, 0xbf, 0x77, 0x33, 0xe1, 0x3d, 0x85, 0x4e, 0x8c, 0xbe, 0x1f, 0x45, 0xc2, 0x3b, 0xf9, 0x3f, 0x4a, 0xbe, 0x2b, 0x12, 0xe7, 0xbd, 0xfe, 0x39, 0x7f, 0x3e, 0x14, 0x6d, 0x62, 0x3e, 0x5b, 0x58, 0x25, 0xbe, 0x9f, 0x9c, 0x80, 0x3e, 0x78, 0x2f, 0x86, 0x3d, 0x82, 0x65, 0x2a, 0x3e, 0x76, 0x6d, 0x57, 0xbe, 0x6a, 0xf9, 0x9e, 0x3e, 0xe1, 0x6e, 0x50, 0xbd, 0xd0, 0x2, 0x29, 0x3c, 0x66, 0x99, 0x59, 0x3d, 0x5c, 0x7b, 0x7a, 0xbd, 0xea, 0xc, 0x3d, 0x3e, 0x5a, 0xb5, 0xe6, 0x3d, 0x14, 0xfe, 0x8a, 0xbc, 0xc6, 0x55, 0x65, 0xbe, 0xaf, 0xda, 0x31, 0x3e, 0x26, 0x7c, 0x24, 0x3c, 0x40, 0x4b, 0x68, 0xbd, 0x8a, 0x7f, 0x20, 0x3e, 0x6f, 0x1d, 0x97, 0x3d, 0xc7, 0x3d, 0xdf, 0xbd, 0x0, 0xe2, 0x96, 0xbc, 0xdc, 0xec, 0xb8, 0xbc, 0xd2, 0xdc, 0x95, 0xbe, 0x5e, 0x34, 0xc2, 0xbd, 0x5, 0x73, 0xb2, 0xbd, 0xe3, 0x4f, 0xad, 0x3d, 0xc4, 0x8d, 0x35, 0x3d, 0x4a, 0xbc, 0xf9, 0x3c, 0x8d, 0xde, 0x23, 0x3d, 0xc8, 0x69, 0x8e, 0x3e, 0xae, 0xa2, 0xc0, 0x3e, 0xfc, 0xff, 0xba, 0x3e, 0x36, 0x5b, 0x2f, 0x3e, 0xda, 0x6e, 0x6d, 0x3e, 0xe4, 0x26, 0x6c, 0x3e, 0x78, 0xb2, 0x91, 0xbe, 0xaa, 0x41, 0x0, 0x3e, 0x46, 0x34, 0x6b, 0x3d, 0xdb, 0x3, 0x15, 0x3e, 0x1f, 0x9d, 0x56, 0x3e, 0x21, 0xf2, 0x97, 0x3d, 0xcb, 0xeb, 0x3d, 0xbe, 0x51, 0xdb, 0x8c, 0x3e, 0xb6, 0xd8, 0x3b, 0x3e, 0x52, 0xd7, 0xd9, 0xbd, 0xe9, 0xab, 0x91, 0x3e, 0xfc, 0xac, 0x44, 0xbe, 0x43, 0x10, 0xff, 0x3d, 0xc, 0xec, 0xd8, 0xbd, 0x4e, 0x5c, 0x59, 0x3e, 0x96, 0xc, 0x9c, 0xbe, 0xc, 0x2b, 0xef, 0x3d, 0x0, 0x33, 0x1a, 0x3e, 0x55, 0xe3, 0xb3, 0xbe, 0x70, 0xed, 0x39, 0x3e, 0xa1, 0x6, 0x83, 0x3d, 0x86, 0x60, 0x4, 0xbf, 0x1, 0x1e, 0xeb, 0x3e, 0xd2, 0x4a, 0x40, 0xbc, 0x50, 0x86, 0x62, 0xbe, 0xb0, 0x2f, 0x73, 0xbf, 0x63, 0x85, 0x13, 0x3c, 0xac, 0x41, 0xd3, 0x3e, 0x3f, 0x68, 0x30, 0xbe, 0xfa, 0x79, 0x56, 0x3e, 0xd, 0x59, 0x95, 0x3e, 0xd6, 0x59, 0xe8, 0x3b, 0x28, 0xd6, 0xa4, 0x3e, 0xba, 0x4e, 0x53, 0x3e, 0x2e, 0x5b, 0xe5, 0x3d, 0xc9, 0x35, 0x25, 0xbe, 0x2e, 0xb6, 0x5c, 0xbd, 0x33, 0x75, 0x81, 0xbe, 0xf3, 0xd0, 0x8, 0xbe, 0xab, 0x9d, 0x53, 0xbe, 0x1c, 0xe5, 0x4a, 0xbe, 0x6b, 0xe9, 0x84, 0x3e, 0x4c, 0xb3, 0xd7, 0xbd, 0x48, 0x90, 0x19, 0xbe, 0x66, 0x5f, 0x65, 0xbe, 0x80, 0xf6, 0x6d, 0xbe, 0xf3, 0x99, 0x54, 0xbd, 0xfd, 0x21, 0xbf, 0x3d, 0xc9, 0xd, 0xe0, 0xbd, 0x30, 0xf7, 0x23, 0x3e, 0x5c, 0x71, 0xe7, 0xbc, 0x96, 0x2c, 0xa9, 0xbe, 0x38, 0x15, 0xab, 0xbe, 0xc1, 0x91, 0x8a, 0x3e, 0xaf, 0xda, 0x25, 0x3e, 0xaa, 0xb5, 0xe7, 0x3b, 0xae, 0x22, 0x51, 0xbe, 0x8d, 0xf0, 0x43, 0x3e, 0xa8, 0x4f, 0x33, 0x3d, 0xcd, 0xd5, 0x3d, 0xbe, 0x61, 0x17, 0xa9, 0x3e, 0xa8, 0x75, 0x41, 0x3d, 0xfe, 0xba, 0x54, 0xbe, 0x8d, 0x24, 0xa8, 0xbe, 0x95, 0x6d, 0xf7, 0x3d, 0xd8, 0xc2, 0x88, 0xbe, 0x23, 0xd6, 0xba, 0xbc, 0x81, 0xd5, 0xfd, 0xbb, 0xb0, 0xbf, 0x88, 0xbe, 0x26, 0xc, 0x86, 0x3e, 0x32, 0x6f, 0x8, 0xbf, 0x8a, 0x47, 0x2f, 0x3e, 0x8e, 0x3a, 0x81, 0x3c, 0xab, 0x7c, 0x1a, 0x3d, 0x68, 0x89, 0x72, 0xbd, 0x3f, 0x97, 0x9c, 0x3e, 0xfa, 0xa1, 0xf2, 0xbd, 0xa6, 0xe8, 0x61, 0x3e, 0x4c, 0x17, 0x9f, 0xbe, 0xcb, 0xa6, 0x85, 0xbe, 0x81, 0xe7, 0x4a, 0xbe, 0x50, 0x8, 0x11, 0x3e, 0x9e, 0x25, 0x38, 0xbe, 0x0, 0x94, 0xf0, 0xbc, 0xed, 0x79, 0x6b, 0xbe, 0x6e, 0x2, 0x9d, 0x3e, 0xbe, 0xdd, 0x27, 0xbf, 0x98, 0xe6, 0xb6, 0xbe, 0x77, 0x2, 0x5f, 0xbe, 0xda, 0xb4, 0xb8, 0xbc, 0x0, 0xb4, 0xb4, 0xbe, 0x35, 0xee, 0x6c, 0x3e, 0xff, 0xf6, 0xa0, 0x3d, 0x0, 0x95, 0xb1, 0x3a, 0xec, 0x52, 0x41, 0x3e, 0x94, 0x98, 0x2b, 0x3d, 0xca, 0x7, 0x38, 0xbe, 0xe1, 0x1e, 0x8f, 0x3e, 0x3c, 0xa2, 0x4d, 0x3d, 0x18, 0x1e, 0x68, 0x3e, 0x6f, 0x8, 0xfb, 0xbc, 0x79, 0xe6, 0x2a, 0x3e, 0xf0, 0xe4, 0x2b, 0xbe, 0x0, 0xc4, 0x42, 0xbb, 0xd2, 0x2, 0x4a, 0xbe, 0xf9, 0xeb, 0x5, 0x3e, 0xc6, 0x6a, 0x36, 0x3e, 0xd2, 0x22, 0x41, 0xbe, 0x47, 0x50, 0xb8, 0x3e, 0xcb, 0xba, 0x42, 0xbe, 0x71, 0xef, 0x3c, 0x3e, 0x9e, 0xf3, 0x39, 0xbd, 0xd0, 0x2f, 0xa8, 0x3c, 0x60, 0xb, 0xdb, 0xbd, 0x97, 0xc9, 0x31, 0x3e, 0x56, 0xad, 0x6b, 0x3e, 0x62, 0xc5, 0x9a, 0xbe, 0x9a, 0xc5, 0x8, 0x3e, 0xbb, 0xbf, 0xe1, 0xbe, 0x64, 0x81, 0xe6, 0xbe, 0xf4, 0x64, 0x54, 0xbe, 0x76, 0x71, 0x2e, 0x3e, 0x9c, 0x49, 0x1c, 0xbd, 0x20, 0x23, 0x55, 0xbe, 0x94, 0x6d, 0x82, 0x3e, 0x62, 0x2d, 0x73, 0x3e, 0x80, 0x87, 0xbd, 0x3c, 0xa4, 0x35, 0x86, 0x3e, 0x59, 0x17, 0x1b, 0xbd, 0xe6, 0xb8, 0x63, 0xbe, 0xcd, 0xc5, 0x49, 0xbe, 0xc4, 0xc5, 0xbe, 0x3d, 0xb8, 0xf0, 0x80, 0xbd, 0x86, 0x52, 0x42, 0x3e, 0xb2, 0x40, 0x3f, 0xbe, 0x0, 0xd3, 0x5f, 0xbe, 0xbc, 0x95, 0xc6, 0x3d, 0x6a, 0xb2, 0xe9, 0xbb, 0x6, 0xe9, 0x68, 0x3e, 0xa6, 0xe8, 0xd1, 0xbc, 0x62, 0xf6, 0xff, 0xff, 0x4, 0x0, 0x0, 0x0, 0x58, 0x0, 0x0, 0x0, 0x45, 0x1d, 0x37, 0xbe, 0x8, 0xf7, 0x2c, 0xbe, 0x53, 0x2f, 0x9, 0xbe, 0xdc, 0xc8, 0xbc, 0xbd, 0x20, 0xe2, 0x3b, 0xbd, 0x4, 0xc4, 0x8a, 0x3e, 0x29, 0xdd, 0x46, 0xbe, 0xac, 0xa2, 0xa9, 0xbd, 0x43, 0x71, 0x9e, 0x3d, 0xee, 0x9e, 0x55, 0x3d, 0x97, 0x47, 0xc2, 0x3c, 0xcd, 0x79, 0x89, 0x3e, 0x15, 0xc7, 0x49, 0x3e, 0xed, 0x1b, 0x6d, 0x3e, 0x75, 0x9b, 0x2d, 0xbc, 0x88, 0xec, 0xd0, 0xbd, 0xe7, 0xf0, 0x3f, 0xbd, 0x89, 0x3a, 0x32, 0xbd, 0x16, 0x7d, 0x65, 0x3e, 0xeb, 0x4a, 0xa2, 0xbd, 0x43, 0x2a, 0xc9, 0x3c, 0x67, 0xfb, 0x8f, 0xbd, 0xc6, 0xf6, 0xff, 0xff, 0x4, 0x0, 0x0, 0x0, 0x80, 0x0, 0x0, 0x0, 0x89, 0x7f, 0x3, 0x3d, 0x0, 0x0, 0x0, 0x0, 0x77, 0xb4, 0xec, 0xbc, 0x20, 0x1f, 0x34, 0xbd, 0xf7, 0xbf, 0x66, 0xbc, 0x0, 0x0, 0x0, 0x0, 0xfc, 0xdc, 0x3, 0x3d, 0xc1, 0x6b, 0x62, 0xbc, 0xdd, 0xc1, 0x5, 0xbd, 0x5f, 0xf0, 0x0, 0x3e, 0xbf, 0xac, 0x1a, 0x3e, 0x2b, 0xe6, 0x2, 0x3e, 0x82, 0x60, 0xcc, 0xbc, 0xb9, 0x7a, 0x58, 0x3c, 0x56, 0x81, 0x83, 0x3d, 0xf6, 0x32, 0xd8, 0xbd, 0xa9, 0xd5, 0x4, 0xbd, 0x0, 0x0, 0x0, 0x0, 0x4a, 0x7c, 0x9b, 0xbc, 0xed, 0x7e, 0x4b, 0xbc, 0xd9, 0x13, 0xa9, 0xbc, 0x0, 0x0, 0x0, 0x0, 0xe0, 0x77, 0x4c, 0xbd, 0x95, 0x2, 0x58, 0xbe, 0x76, 0x84, 0x8e, 0xbc, 0x12, 0x20, 0xd8, 0xbd, 0xad, 0x7c, 0x41, 0x3e, 0x0, 0x0, 0x0, 0x0, 0x23, 0x39, 0x8a, 0xbc, 0x4c, 0x9c, 0x8d, 0xbc, 0x0, 0x0, 0x0, 0x0, 0xd, 0x5c, 0x40, 0xba, 0x52, 0xf7, 0xff, 0xff, 0x4, 0x0, 0x0, 0x0, 0x0, 0x1, 0x0, 0x0, 0x8f, 0xc4, 0xc5, 0x3e, 0xf9, 0x6, 0x8, 0xbc, 0xbf, 0x6c, 0x89, 0x3b, 0x43, 0x86, 0xb5, 0x3c, 0x71, 0x16, 0xb0, 0xbd, 0x2d, 0xcd, 0x1f, 0x3e, 0x58, 0xce, 0xff, 0xbc, 0x29, 0x78, 0x32, 0xbd, 0x3e, 0xc3, 0xac, 0x3d, 0xb7, 0xb1, 0xd8, 0xbc, 0x95, 0x43, 0x51, 0xba, 0xec, 0xd6, 0x14, 0xbd, 0xfb, 0xb0, 0x92, 0x3c, 0xde, 0xc4, 0xd1, 0x3d, 0xbc, 0x1f, 0x4b, 0xbc, 0x1, 0x70, 0xc8, 0x3d, 0x31, 0xb5, 0xbb, 0x3c, 0x0, 0x0, 0x0, 0x0, 0xf8, 0x58, 0xc4, 0xbd, 0xbe, 0x62, 0xae, 0x3d, 0x8b, 0xb0, 0xe0, 0x3d, 0x1f, 0xa0, 0x96, 0xbd, 0xc0, 0x21, 0xc8, 0xba, 0x0, 0x0, 0x0, 0x0, 0x23, 0x49, 0xd6, 0x3d, 0x4b, 0xb8, 0x7f, 0xbc, 0x76, 0xd4, 0x9, 0xbd, 0x7f, 0x23, 0x2a, 0x3d, 0xd9, 0xf1, 0x3d, 0x3e, 0x0, 0x0, 0x0, 0x0, 0x82, 0xd0, 0xd8, 0xbd, 0x43, 0x4b, 0xb7, 0x3d, 0x0, 0x0, 0x0, 0x0, 0x86, 0xd1, 0xac, 0x3c, 0x0, 0x0, 0x0, 0x0, 0xea, 0xec, 0xd5, 0x3d, 0x9d, 0x7e, 0x83, 0x3c, 0x0, 0x0, 0x0, 0x0, 0x42, 0x74, 0xbc, 0x3c, 0xb3, 0xaf, 0x61, 0x3b, 0xc9, 0xdb, 0x7f, 0xbb, 0xed, 0x88, 0xde, 0xbb, 0x28, 0x1b, 0x2d, 0x3e, 0x2f, 0x41, 0x6, 0xbe, 0x94, 0x85, 0x54, 0xbe, 0x7f, 0x31, 0x3c, 0xbc, 0x0, 0x0, 0x0, 0x0, 0xd0, 0xea, 0x16, 0x3e, 0xb0, 0x3c, 0x22, 0xbd, 0xea, 0x8d, 0x76, 0x3c, 0x5b, 0xf2, 0x1d, 0xbe, 0x82, 0x7d, 0x1, 0x3d, 0x9b, 0x1b, 0x75, 0x3e, 0xd, 0x73, 0xcd, 0x3b, 0x0, 0x0, 0x0, 0x0, 0x0, 0x0, 0x0, 0x0, 0xf0, 0x4d, 0xd4, 0x3d, 0x3f, 0xc, 0x49, 0xbc, 0xc3, 0x87, 0xd4, 0x3d, 0x88, 0xb8, 0x45, 0x3e, 0xc6, 0xf5, 0x9e, 0x3c, 0x0, 0x0, 0x0, 0x0, 0x63, 0xc1, 0x71, 0xbd, 0x6f, 0x85, 0x36, 0xbc, 0x5e, 0xf8, 0xff, 0xff, 0x4, 0x0, 0x0, 0x0, 0x0, 0x7, 0x0, 0x0, 0xb8, 0xd, 0x3d, 0x3d, 0x73, 0x25, 0x9, 0xbd, 0x70, 0xf1, 0x34, 0x3e, 0x74, 0x98, 0xc0, 0x3e, 0x7a, 0xc3, 0xaa, 0xbd, 0x31, 0x73, 0xf9, 0x3e, 0x1f, 0x1f, 0x52, 0xbd, 0xae, 0x47, 0x85, 0x3e, 0x52, 0x5, 0x63, 0xbe, 0x35, 0xd5, 0x32, 0xbe, 0xa8, 0xb7, 0x9b, 0x3d, 0xe7, 0x96, 0x5a, 0x3d, 0xce, 0xc8, 0x8e, 0x3e, 0x2b, 0xdb, 0x27, 0xbd, 0x90, 0xfd, 0x6d, 0xbe, 0xb2, 0x14, 0x4f, 0xbd, 0xeb, 0xb0, 0x76, 0x3e, 0x7d, 0x9d, 0x83, 0xbe, 0x8b, 0xc, 0x98, 0x3e, 0xc2, 0xa, 0x77, 0x3d, 0x4d, 0x7e, 0x15, 0xbe, 0x89, 0xd, 0x7a, 0x3e, 0xb7, 0x5c, 0x42, 0x3e, 0x80, 0xb, 0xee, 0xbd, 0x9c, 0xbb, 0x8c, 0x3e, 0x9, 0x7f, 0x8c, 0x3e, 0xeb, 0xc9, 0x47, 0x3d, 0x72, 0xe5, 0xe6, 0xbd, 0x7b, 0xc2, 0x41, 0x3e, 0xd4, 0x1d, 0x26, 0x3e, 0x5b, 0x14, 0x8b, 0x3e, 0xa8, 0xb5, 0x58, 0xbe, 0xa1, 0xe1, 0x0, 0x3e, 0x7b, 0x9b, 0x84, 0x3c, 0xb0, 0xa6, 0x5b, 0x3e, 0x98, 0x37, 0x54, 0xbe, 0x6c, 0xff, 0xd, 0x3e, 0x31, 0x82, 0xe, 0x3e, 0x1c, 0x92, 0x91, 0x3d, 0x68, 0x1e, 0xb, 0xbe, 0x63, 0x1a, 0x45, 0x3d, 0xef, 0xc2, 0x81, 0xbc, 0x0, 0xfa, 0x55, 0x3d, 0x10, 0xea, 0x32, 0x3e, 0x18, 0x80, 0x94, 0xbd, 0x47, 0xa, 0x67, 0x3e, 0xff, 0xfe, 0x9e, 0xbe, 0xcc, 0x86, 0x5b, 0x3c, 0xe6, 0xf4, 0xb, 0x3e, 0xe0, 0x43, 0x40, 0x3e, 0x1e, 0xed, 0x43, 0xbc, 0x71, 0xc6, 0x1d, 0x3e, 0x39, 0x62, 0x93, 0xbe, 0x2, 0x4f, 0xf7, 0xbd, 0xd6, 0x29, 0x10, 0x3e, 0x45, 0xdf, 0x44, 0xbd, 0xb4, 0xd6, 0x47, 0xbe, 0x18, 0x64, 0x92, 0x3e, 0xbd, 0xda, 0x1f, 0xbe, 0x7d, 0x68, 0x46, 0x3e, 0xc3, 0x6e, 0xd5, 0x3d, 0x6e, 0x15, 0x66, 0x3d, 0xf7, 0x78, 0xc7, 0xbd, 0x48, 0xa4, 0x25, 0x3e, 0x83, 0xe8, 0x39, 0x3d, 0xca, 0x98, 0x28, 0x3e, 0xa6, 0x1e, 0x23, 0xbe, 0xdd, 0x14, 0xe3, 0xbc, 0x64, 0xd9, 0x56, 0xbe, 0x7c, 0xf4, 0x66, 0x3c, 0x68, 0x1b, 0x39, 0x3e, 0xc0, 0xbe, 0x88, 0xbe, 0x44, 0xf7, 0x2, 0x3d, 0xf8, 0xa9, 0xc3, 0x3d, 0x7b, 0x0, 0xe6, 0x3d, 0x47, 0xf1, 0x28, 0x3e, 0xa0, 0xd2, 0x94, 0xbe, 0x63, 0x6f, 0x8e, 0xbe, 0xd5, 0xa7, 0x98, 0xbd, 0x29, 0xe8, 0x27, 0x3e, 0xb7, 0xed, 0x14, 0xbd, 0xc1, 0xf3, 0x6c, 0x3b, 0x8d, 0x7b, 0x57, 0xbd, 0xe9, 0x26, 0x8c, 0xbd, 0x3f, 0xbe, 0x2d, 0xbe, 0x53, 0x2, 0x51, 0x3e, 0x6e, 0x91, 0x6f, 0x3e, 0xb1, 0x4e, 0xcf, 0xbd, 0xd1, 0x81, 0x2a, 0xbe, 0xe, 0x5e, 0xfb, 0xbd, 0xe5, 0xc, 0xa2, 0xbd, 0x35, 0x5e, 0xa0, 0xbe, 0xf9, 0xe1, 0x32, 0x3d, 0xbc, 0xcb, 0x85, 0x3e, 0xc7, 0xe8, 0x68, 0x3d, 0x49, 0x5d, 0x88, 0x3e, 0x1b, 0x31, 0xd1, 0xbb, 0x5a, 0x9b, 0x2a, 0xbe, 0x5b, 0xc8, 0x12, 0xbe, 0xb0, 0xe9, 0xbd, 0x3d, 0x5e, 0x6e, 0x90, 0x3e, 0x49, 0x4, 0x94, 0xbe, 0x2a, 0x54, 0x62, 0x3d, 0xef, 0x8e, 0x30, 0xbe, 0xda, 0xb2, 0xd7, 0xbb, 0x3e, 0x28, 0x68, 0x3e, 0xc8, 0x1c, 0xa6, 0x3e, 0xe5, 0xbd, 0xd8, 0xbe, 0xe, 0xfb, 0x3c, 0xbe, 0xa9, 0xc2, 0xa, 0xbd, 0x5f, 0xf3, 0xb6, 0x3e, 0xe3, 0x49, 0xaf, 0xbd, 0x41, 0x6, 0x88, 0x3e, 0x50, 0x58, 0xd6, 0xbd, 0x77, 0x25, 0x0, 0xbe, 0x71, 0x87, 0x79, 0x3d, 0xbb, 0xa4, 0x60, 0xbe, 0x3b, 0xb3, 0x2e, 0x3e, 0x63, 0x6a, 0x27, 0x3e, 0xb8, 0x79, 0xb2, 0x3d, 0x0, 0x37, 0x73, 0xbe, 0xa0, 0xc3, 0xee, 0x3c, 0x6e, 0x6a, 0x93, 0xbd, 0xe4, 0xe4, 0x69, 0xbe, 0x1f, 0x72, 0x2a, 0xbe, 0x48, 0xf2, 0x89, 0xbd, 0xa, 0x22, 0x41, 0x3e, 0x3b, 0x15, 0x66, 0x3e, 0x96, 0xe5, 0x6b, 0xbe, 0xba, 0xae, 0xa4, 0x3d, 0xdb, 0xaa, 0xc8, 0xbc, 0x62, 0x8f, 0xa9, 0xbd, 0x73, 0xb5, 0x8d, 0x3e, 0x4b, 0x5a, 0x3a, 0xbe, 0x4e, 0x67, 0xc3, 0x3d, 0xff, 0x44, 0x93, 0xbc, 0xb4, 0x4d, 0x81, 0x3e, 0xb, 0xcd, 0x4d, 0xbe, 0x21, 0xc6, 0xb8, 0x3d, 0x12, 0xe8, 0xfa, 0x3d, 0xe8, 0xdc, 0xb4, 0x3b, 0xd6, 0x36, 0x5, 0x3d, 0x64, 0xa4, 0x2, 0x3e, 0x70, 0x33, 0x71, 0x3c, 0x16, 0x90, 0x56, 0x3e, 0xf6, 0x9d, 0x28, 0xbe, 0x1e, 0x4, 0xad, 0xbe, 0xcf, 0xcf, 0x2a, 0xbe, 0x1, 0x6e, 0x45, 0xbe, 0xaa, 0xb3, 0x71, 0x3e, 0xdc, 0x24, 0x49, 0x3e, 0xf8, 0xeb, 0x8d, 0x3d, 0x2f, 0x79, 0x7, 0xbe, 0xc, 0xe1, 0xb5, 0x3d, 0x20, 0xa6, 0x5d, 0x3e, 0x5b, 0xae, 0xf5, 0xbb, 0x23, 0xb9, 0xcb, 0x3d, 0xf0, 0x4e, 0x87, 0xbd, 0x43, 0x1f, 0x94, 0xbe, 0xfa, 0x25, 0x9b, 0x3d, 0xac, 0xb4, 0x47, 0x3e, 0x22, 0x93, 0x2a, 0xbe, 0xba, 0x4f, 0x4f, 0xbe, 0x6, 0x59, 0x61, 0xbe, 0x0, 0xf8, 0x69, 0xbb, 0x10, 0xb6, 0x56, 0xbe, 0x74, 0x8a, 0x7d, 0xbe, 0x40, 0xa5, 0x7, 0xbd, 0xbd, 0x3, 0x6a, 0x3e, 0x78, 0x25, 0x55, 0xbe, 0xe, 0x60, 0xfa, 0x3d, 0x7d, 0x7b, 0x5b, 0x3e, 0x29, 0xac, 0x38, 0xbe, 0xa0, 0x4, 0x8a, 0x3e, 0xd9, 0x82, 0x7a, 0x3e, 0x29, 0xb0, 0x26, 0x3e, 0x61, 0x55, 0x7b, 0x3d, 0x64, 0xc8, 0xbc, 0x3b, 0xd9, 0xab, 0x4f, 0x3e, 0x39, 0xb9, 0x3c, 0x3e, 0x2, 0xee, 0x4d, 0x3e, 0x59, 0xa0, 0xc2, 0x3d, 0xdc, 0xad, 0x32, 0xbe, 0xbf, 0xc2, 0xca, 0x3c, 0x34, 0x94, 0x98, 0xbe, 0x5c, 0x39, 0x7d, 0x3e, 0x3b, 0xdc, 0x1a, 0xbe, 0xf7, 0xd0, 0x9a, 0xbe, 0xc8, 0xef, 0xda, 0x3d, 0x94, 0x8b, 0x5e, 0x3e, 0xe0, 0x6f, 0xa9, 0x3e, 0x96, 0xf3, 0xa1, 0xbd, 0x50, 0xc4, 0xa3, 0x3e, 0x5a, 0x40, 0xce, 0x3d, 0xe0, 0x1f, 0x75, 0x3e, 0x3c, 0x30, 0xa7, 0x3e, 0x5c, 0x29, 0x16, 0xbd, 0x8b, 0x95, 0x6c, 0x3d, 0x1f, 0xa3, 0x60, 0xbe, 0x1d, 0xdf, 0xf0, 0xbc, 0x1d, 0xcb, 0xa0, 0x3e, 0x5d, 0x89, 0xcd, 0x3e, 0x64, 0x91, 0xb, 0x3e, 0x38, 0x22, 0x31, 0xbd, 0xda, 0x48, 0x3d, 0xbe, 0x6f, 0xc5, 0x25, 0xbe, 0x5c, 0x55, 0x68, 0xbe, 0x50, 0x1a, 0x2a, 0x3e, 0x70, 0x62, 0xa8, 0x3c, 0x6c, 0x94, 0x73, 0xbe, 0xb8, 0x28, 0x71, 0x3e, 0x21, 0x15, 0xaf, 0x3e, 0xf, 0xa5, 0x8a, 0x3e, 0x40, 0xbc, 0xe0, 0x3d, 0xdf, 0xb2, 0xdd, 0x3c, 0x4b, 0x38, 0x4d, 0xbe, 0x7f, 0xc8, 0x87, 0xbe, 0x2e, 0xba, 0x44, 0xbc, 0x4a, 0x5, 0x78, 0x3d, 0x48, 0xa7, 0x5d, 0x3d, 0x58, 0x11, 0x53, 0x3e, 0x18, 0xd5, 0xd1, 0xbd, 0x91, 0x80, 0xd, 0x3e, 0x3d, 0x20, 0x43, 0x3e, 0x20, 0xc6, 0x7f, 0x3d, 0xd1, 0x53, 0x41, 0xbe, 0x7c, 0x6a, 0x22, 0xbe, 0x28, 0x30, 0x80, 0xbe, 0xaa, 0x9f, 0x22, 0xbe, 0x3a, 0x19, 0x79, 0x3e, 0xc8, 0xc5, 0x60, 0xbd, 0xa2, 0x78, 0x6, 0xbe, 0xb7, 0xc1, 0x90, 0x3d, 0x56, 0x53, 0xf7, 0x3d, 0x2e, 0x6, 0x25, 0xbe, 0x35, 0x60, 0x44, 0x3d, 0x67, 0x59, 0xd7, 0x3b, 0xb6, 0x23, 0x86, 0xbe, 0x2e, 0x92, 0xe1, 0xbd, 0x26, 0xb8, 0x80, 0xbd, 0x1f, 0x5e, 0x58, 0xbe, 0xa8, 0x80, 0xe9, 0xbd, 0xae, 0xf, 0x81, 0xbe, 0x13, 0xc7, 0x9, 0xbe, 0xe1, 0xab, 0x80, 0xbe, 0xaf, 0xe3, 0x86, 0xbe, 0x8b, 0x6c, 0xb5, 0x3d, 0x46, 0x63, 0x1b, 0x3e, 0xa5, 0x30, 0xae, 0x3d, 0xfb, 0x99, 0x70, 0x3e, 0xf7, 0xe6, 0x8c, 0x3e, 0x49, 0x4b, 0x4d, 0xbd, 0xd, 0xdf, 0xdd, 0xbd, 0xc2, 0xff, 0x31, 0xbd, 0x20, 0x78, 0x79, 0x3e, 0x18, 0x9e, 0x84, 0xbe, 0xc1, 0x23, 0xba, 0xbc, 0xc4, 0x6, 0x9c, 0x3e, 0xfe, 0x6c, 0xd6, 0x3c, 0xb0, 0xaa, 0x22, 0x3d, 0x24, 0xd7, 0x1c, 0xbe, 0x28, 0xfd, 0x32, 0x3e, 0xc0, 0xec, 0x3c, 0xbc, 0x87, 0xf5, 0x6d, 0xbe, 0xd0, 0x5b, 0x66, 0xbd, 0x8a, 0x3c, 0x74, 0xbe, 0x11, 0xdf, 0xd, 0x3e, 0x24, 0x94, 0x13, 0xbd, 0xbe, 0x15, 0x41, 0x3e, 0xe6, 0x74, 0xa, 0x3d, 0xb0, 0xba, 0x39, 0x3d, 0xf3, 0x4f, 0x1f, 0x3e, 0x7b, 0xab, 0xa8, 0xbe, 0xb9, 0xa4, 0x44, 0x3d, 0xc1, 0xe4, 0xca, 0x3d, 0x61, 0xa2, 0x66, 0x3e, 0x6f, 0xec, 0x44, 0xbe, 0xdc, 0xda, 0x80, 0x3e, 0x18, 0x71, 0x6c, 0x3e, 0xd8, 0xe9, 0x6c, 0xbe, 0x85, 0x4d, 0x8c, 0xbe, 0x66, 0xab, 0xad, 0x3d, 0x76, 0x8d, 0xf0, 0x3d, 0x1f, 0xc5, 0xc2, 0xbd, 0xbd, 0xbb, 0x8c, 0xbe, 0x81, 0x50, 0x51, 0xbe, 0x5d, 0x63, 0x97, 0x3c, 0x91, 0xa, 0x18, 0x3e, 0xae, 0xcd, 0x86, 0x3e, 0x11, 0x3d, 0xcb, 0x3c, 0x88, 0xfd, 0x72, 0x3e, 0x72, 0x22, 0x8e, 0xbd, 0xf, 0x70, 0x10, 0xbe, 0xf3, 0xda, 0x7d, 0x3d, 0x13, 0xde, 0xd7, 0x3c, 0xc5, 0x8f, 0x5, 0x3d, 0x82, 0x95, 0x3c, 0xbe, 0xdf, 0x7d, 0xff, 0xbc, 0x65, 0xf7, 0x53, 0xbe, 0x90, 0xa1, 0xc0, 0x3e, 0x90, 0x33, 0x76, 0x3e, 0xf5, 0x1f, 0x56, 0xbe, 0xc7, 0x8b, 0xc8, 0xbe, 0x31, 0x63, 0x80, 0x3d, 0x4c, 0x4c, 0xc7, 0xbc, 0x56, 0x4e, 0x81, 0x3e, 0x99, 0x93, 0x6d, 0xbe, 0xa6, 0xe0, 0xd7, 0x3d, 0xc, 0xb2, 0x65, 0xbd, 0x6a, 0xc2, 0xa2, 0x3d, 0xb6, 0xae, 0xc7, 0x3d, 0x29, 0xde, 0x8b, 0xbe, 0xaf, 0xae, 0x87, 0x3e, 0xca, 0xaa, 0x82, 0xbd, 0xf9, 0x49, 0x3e, 0x3e, 0xf1, 0x50, 0xdb, 0x3d, 0xdf, 0x26, 0xe, 0xbd, 0x94, 0xdf, 0xbc, 0x3d, 0xfc, 0x96, 0x81, 0x3e, 0xc, 0x29, 0x85, 0xbe, 0x83, 0xd3, 0x71, 0x3e, 0xf4, 0x7c, 0x5a, 0xbe, 0xa4, 0xc3, 0x29, 0xbd, 0x5a, 0xb5, 0x25, 0xbe, 0xe0, 0x1c, 0x4b, 0x3d, 0xdc, 0xf8, 0x42, 0x3e, 0xf3, 0x61, 0x13, 0xbe, 0xb2, 0x41, 0x2d, 0x3e, 0xdc, 0xe3, 0x91, 0xbe, 0x3a, 0x92, 0xb8, 0x3c, 0x21, 0x98, 0xb3, 0xbd, 0x19, 0x48, 0x80, 0x3d, 0x35, 0xd3, 0x1c, 0xba, 0x1, 0xf1, 0xa3, 0x3e, 0x4f, 0x11, 0xb1, 0x3b, 0x3a, 0xca, 0xd1, 0x3d, 0xee, 0xf9, 0x9b, 0xbe, 0x8a, 0xae, 0x2, 0xbe, 0xf1, 0x41, 0xcd, 0x3d, 0xdc, 0x53, 0x88, 0xbe, 0xe3, 0x40, 0x21, 0xbe, 0x2d, 0x34, 0x3a, 0x3e, 0x4e, 0xa8, 0x26, 0x3e, 0xbb, 0xde, 0x8, 0x3e, 0x22, 0x7d, 0x47, 0xbe, 0x87, 0xbe, 0x60, 0x3e, 0xc2, 0xf5, 0x21, 0xbe, 0xa2, 0x38, 0x5, 0xbc, 0x87, 0x67, 0x19, 0x3e, 0x2c, 0x6, 0x2b, 0x3e, 0x98, 0xbe, 0x3c, 0x3e, 0xd5, 0x70, 0xee, 0xbd, 0x17, 0x58, 0x97, 0xbd, 0xe3, 0xef, 0x71, 0xbe, 0xc6, 0x79, 0x7c, 0x3e, 0x3e, 0x56, 0x32, 0x3c, 0x65, 0xee, 0x6d, 0x3e, 0x5b, 0x73, 0x2f, 0x3c, 0x58, 0xb4, 0x37, 0x3e, 0xa3, 0x2f, 0xe, 0x3d, 0x86, 0xc6, 0xbf, 0x3c, 0xcd, 0x15, 0x72, 0xbc, 0xfa, 0x34, 0x95, 0xbc, 0xba, 0xf8, 0x36, 0xbe, 0xec, 0x42, 0xbb, 0x3e, 0x61, 0x52, 0xb5, 0xbd, 0xa8, 0x98, 0x41, 0x3e, 0xd1, 0x85, 0x9d, 0x3e, 0x48, 0xb5, 0x47, 0xbe, 0x24, 0x4e, 0xf2, 0x3e, 0x6d, 0x3b, 0x99, 0xbd, 0xb2, 0x4e, 0x4a, 0x3e, 0x56, 0x7, 0x94, 0xbe, 0xd9, 0x42, 0x3c, 0x3e, 0x1b, 0x5, 0x4f, 0x3e, 0xa8, 0x43, 0x84, 0x3e, 0x80, 0x9, 0x45, 0xbe, 0xe4, 0x15, 0xc1, 0xbc, 0xdd, 0xc1, 0x85, 0xbe, 0x68, 0x68, 0x3d, 0x3e, 0x1, 0xe1, 0x5b, 0xbe, 0x32, 0xd8, 0x5c, 0x3e, 0xf7, 0xac, 0x76, 0xbe, 0x80, 0x9a, 0x14, 0xbb, 0x4a, 0x49, 0x3b, 0xbe, 0x34, 0xe1, 0x9d, 0x3d, 0x3a, 0xb7, 0x48, 0xbe, 0x8a, 0x72, 0x35, 0x3e, 0xf3, 0x54, 0x56, 0xbe, 0x38, 0x20, 0x84, 0xbe, 0x60, 0xd9, 0x7e, 0xbc, 0x93, 0xf9, 0x8e, 0xbe, 0x37, 0x95, 0x56, 0xbe, 0x36, 0x31, 0x6, 0x3e, 0xde, 0x54, 0x66, 0x3d, 0xe1, 0x9c, 0xd, 0xbe, 0x46, 0x1, 0x88, 0xbe, 0x3c, 0x84, 0xdb, 0xbb, 0x4b, 0xa3, 0xa1, 0x3e, 0xcf, 0x89, 0x1b, 0xbe, 0x64, 0x77, 0x7, 0xbe, 0x94, 0xd4, 0x25, 0x3b, 0xb8, 0x20, 0x46, 0x3e, 0xee, 0xf7, 0xe3, 0x3d, 0x65, 0xb7, 0x90, 0xbe, 0xd, 0x4c, 0x49, 0xbe, 0x50, 0xb4, 0x95, 0xbd, 0x59, 0xc3, 0x85, 0x3e, 0xf8, 0x8b, 0x1a, 0x3a, 0x20, 0xe2, 0x26, 0x3d, 0xee, 0xea, 0xa4, 0x3d, 0xff, 0x41, 0xd9, 0x3d, 0xff, 0xad, 0x83, 0xbe, 0x94, 0xfd, 0x1e, 0xbe, 0x71, 0x7e, 0x65, 0x3e, 0x9f, 0x78, 0x99, 0x3e, 0x56, 0xba, 0x40, 0x3e, 0xab, 0x78, 0x13, 0xbe, 0x7c, 0xe9, 0x94, 0x3e, 0xe8, 0x35, 0xac, 0x3d, 0x18, 0x2a, 0x49, 0x3e, 0xa4, 0x7, 0x42, 0xbe, 0xe3, 0x36, 0x56, 0xbe, 0x53, 0xcc, 0x34, 0xbe, 0x13, 0x89, 0x85, 0x3e, 0xcc, 0x1f, 0x4b, 0x3e, 0x9b, 0xbe, 0xb, 0x3e, 0xc0, 0xd6, 0xd1, 0xbc, 0x99, 0x56, 0x28, 0xbe, 0x56, 0x7a, 0x88, 0xbe, 0x12, 0x7, 0x37, 0xbe, 0x60, 0x2b, 0x38, 0x3c, 0x4, 0xde, 0xe1, 0xbd, 0x44, 0xe, 0x62, 0xbd, 0xec, 0x1a, 0xb, 0xbd, 0x3f, 0x8, 0x8b, 0xbe, 0x1f, 0x24, 0xb1, 0xba, 0xa3, 0xe1, 0x51, 0x3e, 0xef, 0x75, 0x43, 0x3e, 0x95, 0x9a, 0x88, 0xbd, 0x9, 0xef, 0xd, 0x3e, 0x3e, 0xee, 0xd9, 0x3c, 0x8f, 0x22, 0xbd, 0x3c, 0xfd, 0x1a, 0x83, 0xbd, 0x81, 0xd, 0xdc, 0x3c, 0x11, 0x62, 0x60, 0xbd, 0xbb, 0xa0, 0xe2, 0x3d, 0x23, 0x94, 0x21, 0xbd, 0xcc, 0xf8, 0xff, 0xff, 0xd0, 0xf8, 0xff, 0xff, 0xf, 0x0, 0x0, 0x0, 0x4d, 0x4c, 0x49, 0x52, 0x20, 0x43, 0x6f, 0x6e, 0x76, 0x65, 0x72, 0x74, 0x65, 0x64, 0x2e, 0x0, 0x1, 0x0, 0x0, 0x0, 0x14, 0x0, 0x0, 0x0, 0x0, 0x0, 0xe, 0x0, 0x18, 0x0, 0x14, 0x0, 0x10, 0x0, 0xc, 0x0, 0x8, 0x0, 0x4, 0x0, 0xe, 0x0, 0x0, 0x0, 0x14, 0x0, 0x0, 0x0, 0x1c, 0x0, 0x0, 0x0, 0x30, 0x1, 0x0, 0x0, 0x34, 0x1, 0x0, 0x0, 0x38, 0x1, 0x0, 0x0, 0x4, 0x0, 0x0, 0x0, 0x6d, 0x61, 0x69, 0x6e, 0x0, 0x0, 0x0, 0x0, 0x4, 0x0, 0x0, 0x0, 0xd8, 0x0, 0x0, 0x0, 0x84, 0x0, 0x0, 0x0, 0x50, 0x0, 0x0, 0x0, 0x14, 0x0, 0x0, 0x0, 0x0, 0x0, 0xe, 0x0, 0x1a, 0x0, 0x14, 0x0, 0x10, 0x0, 0xc, 0x0, 0xb, 0x0, 0x4, 0x0, 0xe, 0x0, 0x0, 0x0, 0x1c, 0x0, 0x0, 0x0, 0x0, 0x0, 0x0, 0x9, 0x1c, 0x0, 0x0, 0x0, 0x20, 0x0, 0x0, 0x0, 0x1, 0x0, 0x0, 0x0, 0x0, 0x0, 0x6, 0x0, 0x8, 0x0, 0x4, 0x0, 0x6, 0x0, 0x0, 0x0, 0x0, 0x0, 0x80, 0x3f, 0x1, 0x0, 0x0, 0x0, 0xa, 0x0, 0x0, 0x0, 0x1, 0x0, 0x0, 0x0, 0x9, 0x0, 0x0, 0x0, 0x8e, 0xff, 0xff, 0xff, 0x10, 0x0, 0x0, 0x0, 0x0, 0x0, 0x0, 0x8, 0xc, 0x0, 0x0, 0x0, 0x10, 0x0, 0x0, 0x0, 0x94, 0xf9, 0xff, 0xff, 0x1, 0x0, 0x0, 0x0, 0x9, 0x0, 0x0, 0x0, 0x3, 0x0, 0x0, 0x0, 0x8, 0x0, 0x0, 0x0, 0x5, 0x0, 0x0, 0x0, 0x4, 0x0, 0x0, 0x0, 0xbe, 0xff, 0xff, 0xff, 0x1c, 0x0, 0x0, 0x0, 0x0, 0x0, 0x0, 0x8, 0x1c, 0x0, 0x0, 0x0, 0x20, 0x0, 0x0, 0x0, 0xc, 0x0, 0x8, 0x0, 0x7, 0x0, 0x0, 0x0, 0x0, 0x0, 0x6, 0x0, 0xc, 0x0, 0x0, 0x0, 0x0, 0x0, 0x1, 0x1, 0x1, 0x0, 0x0, 0x0, 0x8, 0x0, 0x0, 0x0, 0x3, 0x0, 0x0, 0x0, 0x7, 0x0, 0x0, 0x0, 0x6, 0x0, 0x0, 0x0, 0x3, 0x0, 0x0, 0x0, 0x0, 0x0, 0xe, 0x0, 0x16, 0x0, 0x0, 0x0, 0x10, 0x0, 0xc, 0x0, 0xb, 0x0, 0x4, 0x0, 0xe, 0x0, 0x0, 0x0, 0x18, 0x0, 0x0, 0x0, 0x0, 0x0, 0x0, 0x8, 0x18, 0x0, 0x0, 0x0, 0x1c, 0x0, 0x0, 0x0, 0x0, 0x0, 0x6, 0x0, 0x8, 0x0, 0x7, 0x0, 0x6, 0x0, 0x0, 0x0, 0x0, 0x0, 0x0, 0x1, 0x1, 0x0, 0x0, 0x0, 0x7, 0x0, 0x0, 0x0, 0x3, 0x0, 0x0, 0x0, 0x0, 0x0, 0x0, 0x0, 0x1, 0x0, 0x0, 0x0, 0x2, 0x0, 0x0, 0x0, 0x1, 0x0, 0x0, 0x0, 0xa, 0x0, 0x0, 0x0, 0x1, 0x0, 0x0, 0x0, 0x0, 0x0, 0x0, 0x0, 0xb, 0x0, 0x0, 0x0, 0x88, 0x5, 0x0, 0x0, 0x30, 0x5, 0x0, 0x0, 0xdc, 0x4, 0x0, 0x0, 0xa0, 0x4, 0x0, 0x0, 0x64, 0x4, 0x0, 0x0, 0x24, 0x4, 0x0, 0x0, 0x3c, 0x2, 0x0, 0x0, 0x84, 0x1, 0x0, 0x0, 0xe4, 0x0, 0x0, 0x0, 0x60, 0x0, 0x0, 0x0, 0x4, 0x0, 0x0, 0x0, 0xba, 0xfa, 0xff, 0xff, 0x0, 0x0, 0x0, 0x1, 0x14, 0x0, 0x0, 0x0, 0x1c, 0x0, 0x0, 0x0, 0x1c, 0x0, 0x0, 0x0, 0xb, 0x0, 0x0, 0x0, 0x34, 0x0, 0x0, 0x0, 0x2, 0x0, 0x0, 0x0, 0xff, 0xff, 0xff, 0xff, 0x16, 0x0, 0x0, 0x0, 0xa4, 0xfa, 0xff, 0xff, 0x1b, 0x0, 0x0, 0x0, 0x53, 0x74, 0x61, 0x74, 0x65, 0x66, 0x75, 0x6c, 0x50, 0x61, 0x72, 0x74, 0x69, 0x74, 0x69, 0x6f, 0x6e, 0x65, 0x64, 0x43, 0x61, 0x6c, 0x6c, 0x5f, 0x31, 0x3a, 0x30, 0x0, 0x2, 0x0, 0x0, 0x0, 0x1, 0x0, 0x0, 0x0, 0x16, 0x0, 0x0, 0x0, 0x12, 0xfb, 0xff, 0xff, 0x0, 0x0, 0x0, 0x1, 0x14, 0x0, 0x0, 0x0, 0x1c, 0x0, 0x0, 0x0, 0x1c, 0x0, 0x0, 0x0, 0xa, 0x0, 0x0, 0x0, 0x5c, 0x0, 0x0, 0x0, 0x2, 0x0, 0x0, 0x0, 0xff, 0xff, 0xff, 0xff, 0x16, 0x0, 0x0, 0x0, 0xfc, 0xfa, 0xff, 0xff, 0x40, 0x0, 0x0, 0x0, 0x73, 0x65, 0x71, 0x75, 0x65, 0x6e, 0x74, 0x69, 0x61, 0x6c, 0x5f, 0x31, 0x5f, 0x31, 0x2f, 0x64, 0x65, 0x6e, 0x73, 0x65, 0x5f, 0x35, 0x5f, 0x31, 0x2f, 0x4d, 0x61, 0x74, 0x4d, 0x75, 0x6c, 0x3b, 0x73, 0x65, 0x71, 0x75, 0x65, 0x6e, 0x74, 0x69, 0x61, 0x6c, 0x5f, 0x31, 0x5f, 0x31, 0x2f, 0x64, 0x65, 0x6e, 0x73, 0x65, 0x5f, 0x35, 0x5f, 0x31, 0x2f, 0x42, 0x69, 0x61, 0x73, 0x41, 0x64, 0x64, 0x0, 0x0, 0x0, 0x0, 0x2, 0x0, 0x0, 0x0, 0x1, 0x0, 0x0, 0x0, 0x16, 0x0, 0x0, 0x0, 0x92, 0xfb, 0xff, 0xff, 0x0, 0x0, 0x0, 0x1, 0x14, 0x0, 0x0, 0x0, 0x1c, 0x0, 0x0, 0x0, 0x1c, 0x0, 0x0, 0x0, 0x9, 0x0, 0x0, 0x0, 0x78, 0x0, 0x0, 0x0, 0x2, 0x0, 0x0, 0x0, 0xff, 0xff, 0xff, 0xff, 0x20, 0x0, 0x0, 0x0, 0x7c, 0xfb, 0xff, 0xff, 0x5e, 0x0, 0x0, 0x0, 0x73, 0x65, 0x71, 0x75, 0x65, 0x6e, 0x74, 0x69, 0x61, 0x6c, 0x5f, 0x31, 0x5f, 0x31, 0x2f, 0x64, 0x65, 0x6e, 0x73, 0x65, 0x5f, 0x34, 0x5f, 0x31, 0x2f, 0x4d, 0x61, 0x74, 0x4d, 0x75, 0x6c, 0x3b, 0x73, 0x65, 0x71, 0x75, 0x65, 0x6e, 0x74, 0x69, 0x61, 0x6c, 0x5f, 0x31, 0x5f, 0x31, 0x2f, 0x64, 0x65, 0x6e, 0x73, 0x65, 0x5f, 0x34, 0x5f, 0x31, 0x2f, 0x52, 0x65, 0x6c, 0x75, 0x3b, 0x73, 0x65, 0x71, 0x75, 0x65, 0x6e, 0x74, 0x69, 0x61, 0x6c, 0x5f, 0x31, 0x5f, 0x31, 0x2f, 0x64, 0x65, 0x6e, 0x73, 0x65, 0x5f, 0x34, 0x5f, 0x31, 0x2f, 0x42, 0x69, 0x61, 0x73, 0x41, 0x64, 0x64, 0x0, 0x0, 0x2, 0x0, 0x0, 0x0, 0x1, 0x0, 0x0, 0x0, 0x20, 0x0, 0x0, 0x0, 0x2e, 0xfc, 0xff, 0xff, 0x0, 0x0, 0x0, 0x1, 0x14, 0x0, 0x0, 0x0, 0x1c, 0x0, 0x0, 0x0, 0x1c, 0x0, 0x0, 0x0, 0x8, 0x0, 0x0, 0x0, 0x78, 0x0, 0x0, 0x0, 0x2, 0x0, 0x0, 0x0, 0xff, 0xff, 0xff, 0xff, 0x40, 0x0, 0x0, 0x0, 0x18, 0xfc, 0xff, 0xff, 0x5e, 0x0, 0x0, 0x0, 0x73, 0x65, 0x71, 0x75, 0x65, 0x6e, 0x74, 0x69, 0x61, 0x6c, 0x5f, 0x31, 0x5f, 0x31, 0x2f, 0x64, 0x65, 0x6e, 0x73, 0x65, 0x5f, 0x33, 0x5f, 0x31, 0x2f, 0x4d, 0x61, 0x74, 0x4d, 0x75, 0x6c, 0x3b, 0x73, 0x65, 0x71, 0x75, 0x65, 0x6e, 0x74, 0x69, 0x61, 0x6c, 0x5f, 0x31, 0x5f, 0x31, 0x2f, 0x64, 0x65, 0x6e, 0x73, 0x65, 0x5f, 0x33, 0x5f, 0x31, 0x2f, 0x52, 0x65, 0x6c, 0x75, 0x3b, 0x73, 0x65, 0x71, 0x75, 0x65, 0x6e, 0x74, 0x69, 0x61, 0x6c, 0x5f, 0x31, 0x5f, 0x31, 0x2f, 0x64, 0x65, 0x6e, 0x73, 0x65, 0x5f, 0x33, 0x5f, 0x31, 0x2f, 0x42, 0x69, 0x61, 0x73, 0x41, 0x64, 0x64, 0x0, 0x0, 0x2, 0x0, 0x0, 0x0, 0x1, 0x0, 0x0, 0x0, 0x40, 0x0, 0x0, 0x0, 0x0, 0x0, 0x16, 0x0, 0x1c, 0x0, 0x18, 0x0, 0x17, 0x0, 0x10, 0x0, 0xc, 0x0, 0x8, 0x0, 0x0, 0x0, 0x0, 0x0, 0x0, 0x0, 0x7, 0x0, 0x16, 0x0, 0x0, 0x0, 0x0, 0x0, 0x0, 0x1, 0x20, 0x0, 0x0, 0x0, 0xb4, 0x1, 0x0, 0x0, 0x7, 0x0, 0x0, 0x0, 0x0, 0x0, 0x0, 0x9, 0xc0, 0x1, 0x0, 0x0, 0xc, 0x0, 0xc, 0x0, 0x0, 0x0, 0x0, 0x0, 0x8, 0x0, 0x4, 0x0, 0xc, 0x0, 0x0, 0x0, 0x8, 0x0, 0x0, 0x0, 0xc, 0x1, 0x0, 0x0, 0x20, 0x0, 0x0, 0x0, 0x0, 0x0, 0x0, 0x0, 0x0, 0x0, 0x0, 0x0, 0x0, 0x0, 0x0, 0x0, 0x0, 0x0, 0x0, 0x0, 0x0, 0x0, 0x0, 0x0, 0x0, 0x0, 0x0, 0x0, 0x0, 0x0, 0x0, 0x0, 0x0, 0x0, 0x0, 0x0, 0x0, 0x0, 0x0, 0x0, 0x0, 0x0, 0x0, 0x0, 0x0, 0x0, 0x0, 0x0, 0x0, 0x0, 0x0, 0x0, 0x0, 0x0, 0x0, 0x0, 0x0, 0x0, 0x0, 0x0, 0x0, 0x0, 0x0, 0x0, 0x0, 0x0, 0x0, 0x0, 0x0, 0x0, 0x0, 0x0, 0x0, 0x0, 0x0, 0x0, 0x0, 0x0, 0x0, 0x0, 0x0, 0x0, 0x0, 0x0, 0x0, 0x0, 0x0, 0x0, 0x0, 0x0, 0x0, 0x0, 0x0, 0x0, 0x0, 0x0, 0x0, 0x0, 0x0, 0x0, 0x0, 0x0, 0x0, 0x0, 0x0, 0x0, 0x0, 0x0, 0x0, 0x0, 0x0, 0x0, 0x0, 0x0, 0x0, 0x0, 0x0, 0x0, 0x0, 0x0, 0x0, 0x0, 0x0, 0x0, 0x0, 0x0, 0x0, 0x0, 0x0, 0x0, 0x0, 0x0, 0x0, 0x0, 0x0, 0x0, 0x0, 0x0, 0x0, 0x0, 0x0, 0x0, 0x0, 0x0, 0x0, 0x0, 0x0, 0x0, 0x0, 0x0, 0x0, 0x0, 0x0, 0x0, 0x0, 0x0, 0x0, 0x0, 0x0, 0x0, 0x0, 0x0, 0x0, 0x0, 0x0, 0x0, 0x0, 0x0, 0x0, 0x0, 0x0, 0x0, 0x0, 0x0, 0x0, 0x0, 0x0, 0x0, 0x0, 0x0, 0x0, 0x0, 0x0, 0x0, 0x0, 0x0, 0x0, 0x0, 0x0, 0x0, 0x0, 0x0, 0x0, 0x0, 0x0, 0x0, 0x0, 0x0, 0x0, 0x0, 0x0, 0x0, 0x0, 0x0, 0x0, 0x0, 0x0, 0x0, 0x0, 0x0, 0x0, 0x0, 0x0, 0x0, 0x0, 0x0, 0x0, 0x0, 0x0, 0x0, 0x0, 0x0, 0x0, 0x0, 0x0, 0x0, 0x0, 0x0, 0x0, 0x0, 0x0, 0x0, 0x0, 0x0, 0x0, 0x0, 0x0, 0x0, 0x0, 0x0, 0x0, 0x0, 0x0, 0x0, 0x0, 0x0, 0x0, 0x0, 0x0, 0x0, 0x0, 0x0, 0x0, 0x0, 0x0, 0x0, 0x0, 0x0, 0x0, 0x0, 0x0, 0x0, 0x0, 0x0, 0x20, 0x0, 0x0, 0x0, 0xd4, 0x94, 0x88, 0x3b, 0xcc, 0x5a, 0x0, 0x3b, 0x3, 0xcc, 0xe, 0x3b, 0xa2, 0x1a, 0x40, 0x3b, 0xcd, 0x44, 0xfa, 0x3a, 0x53, 0x61, 0x0, 0x3b, 0x4f, 0x23, 0xa4, 0x3b, 0xf2, 0xe5, 0x1, 0x3b, 0xfe, 0x82, 0x89, 0x3b, 0x63, 0x3a, 0x19, 0x3b, 0x15, 0xf2, 0xf6, 0x3b, 0xfa, 0x57, 0x87, 0x3b, 0xab, 0xd9, 0x66, 0x3b, 0x38, 0x27, 0x98, 0x3b, 0x23, 0x47, 0x89, 0x3b, 0xe1, 0xb7, 0x54, 0x3b, 0x75, 0xd5, 0x55, 0x3b, 0x55, 0x69, 0x0, 0x3b, 0x88, 0xc9, 0x7, 0x3b, 0x17, 0x11, 0x2c, 0x3b, 0xce, 0xe3, 0xa, 0x3b, 0xe6, 0x20, 0xff, 0x3a, 0x36, 0xb7, 0x66, 0x3b, 0x52, 0xce, 0x2d, 0x3b, 0x71, 0x57, 0x4, 0x3b, 0xb3, 0x6e, 0x5c, 0x3b, 0xbe, 0x12, 0x60, 0x3b, 0xab, 0x65, 0xfe, 0x3a, 0xfb, 0xa3, 0x3, 0x3b, 0x32, 0xca, 0x40, 0x3b, 0x9f, 0x4b, 0xfe, 0x3a, 0xdb, 0x52, 0x10, 0x3b, 0x11, 0x0, 0x0, 0x0, 0x74, 0x66, 0x6c, 0x2e, 0x70, 0x73, 0x65, 0x75, 0x64, 0x6f, 0x5f, 0x71, 0x63, 0x6f, 0x6e, 0x73, 0x74, 0x0, 0x0, 0x0, 0x2, 0x0, 0x0, 0x0, 0x20, 0x0, 0x0, 0x0, 0x40, 0x0, 0x0, 0x0, 0x1a, 0xff, 0xff, 0xff, 0x0, 0x0, 0x0, 0x1, 0x10, 0x0, 0x0, 0x0, 0x10, 0x0, 0x0, 0x0, 0x6, 0x0, 0x0, 0x0, 0x1c, 0x0, 0x0, 0x0, 0xa0, 0xfe, 0xff, 0xff, 0xf, 0x0, 0x0, 0x0, 0x61, 0x72, 0x69, 0x74, 0x68, 0x2e, 0x63, 0x6f, 0x6e, 0x73, 0x74, 0x61, 0x6e, 0x74, 0x34, 0x0, 0x2, 0x0, 0x0, 0x0, 0x16, 0x0, 0x0, 0x0, 0x20, 0x0, 0x0, 0x0, 0x56, 0xff, 0xff, 0xff, 0x0, 0x0, 0x0, 0x1, 0x10, 0x0, 0x0, 0x0, 0x10, 0x0, 0x0, 0x0, 0x5, 0x0, 0x0, 0x0, 0x1c, 0x0, 0x0, 0x0, 0xdc, 0xfe, 0xff, 0xff, 0xf, 0x0, 0x0, 0x0, 0x61, 0x72, 0x69, 0x74, 0x68, 0x2e, 0x63, 0x6f, 0x6e, 0x73, 0x74, 0x61, 0x6e, 0x74, 0x33, 0x0, 0x1, 0x0, 0x0, 0x0, 0x16, 0x0, 0x0, 0x0, 0x8e, 0xff, 0xff, 0xff, 0x0, 0x0, 0x0, 0x1, 0x10, 0x0, 0x0, 0x0, 0x10, 0x0, 0x0, 0x0, 0x4, 0x0, 0x0, 0x0, 0x1c, 0x0, 0x0, 0x0, 0x14, 0xff, 0xff, 0xff, 0xf, 0x0, 0x0, 0x0, 0x61, 0x72, 0x69, 0x74, 0x68, 0x2e, 0x63, 0x6f, 0x6e, 0x73, 0x74, 0x61, 0x6e, 0x74, 0x32, 0x0, 0x1, 0x0, 0x0, 0x0, 0x20, 0x0, 0x0, 0x0, 0xc6, 0xff, 0xff, 0xff, 0x0, 0x0, 0x0, 0x1, 0x10, 0x0, 0x0, 0x0, 0x10, 0x0, 0x0, 0x0, 0x3, 0x0, 0x0, 0x0, 0x1c, 0x0, 0x0, 0x0, 0x4c, 0xff, 0xff, 0xff, 0xf, 0x0, 0x0, 0x0, 0x61, 0x72, 0x69, 0x74, 0x68, 0x2e, 0x63, 0x6f, 0x6e, 0x73, 0x74, 0x61, 0x6e, 0x74, 0x31, 0x0, 0x1, 0x0, 0x0, 0x0, 0x40, 0x0, 0x0, 0x0, 0x0, 0x0, 0x16, 0x0, 0x18, 0x0, 0x14, 0x0, 0x0, 0x0, 0x10, 0x0, 0xc, 0x0, 0x8, 0x0, 0x0, 0x0, 0x0, 0x0, 0x0, 0x0, 0x7, 0x0, 0x16, 0x0, 0x0, 0x0, 0x0, 0x0, 0x0, 0x1, 0x10, 0x0, 0x0, 0x0, 0x10, 0x0, 0x0, 0x0, 0x2, 0x0, 0x0, 0x0, 0x1c, 0x0, 0x0, 0x0, 0x9c, 0xff, 0xff, 0xff, 0xe, 0x0, 0x0, 0x0, 0x61, 0x72, 0x69, 0x74, 0x68, 0x2e, 0x63, 0x6f, 0x6e, 0x73, 0x74, 0x61, 0x6e, 0x74, 0x0, 0x0, 0x2, 0x0, 0x0, 0x0, 0x40, 0x0, 0x0, 0x0, 0x7, 0x0, 0x0, 0x0, 0x0, 0x0, 0x16, 0x0, 0x1c, 0x0, 0x18, 0x0, 0x0, 0x0, 0x14, 0x0, 0x10, 0x0, 0xc, 0x0, 0x0, 0x0, 0x0, 0x0, 0x8, 0x0, 0x7, 0x0, 0x16, 0x0, 0x0, 0x0, 0x0, 0x0, 0x0, 0x1, 0x14, 0x0, 0x0, 0x0, 0x20, 0x0, 0x0, 0x0, 0x20, 0x0, 0x0, 0x0, 0x1, 0x0, 0x0, 0x0, 0x40, 0x0, 0x0, 0x0, 0x2, 0x0, 0x0, 0x0, 0xff, 0xff, 0xff, 0xff, 0x7, 0x0, 0x0, 0x0, 0x4, 0x0, 0x4, 0x0, 0x4, 0x0, 0x0, 0x0, 0x20, 0x0, 0x0, 0x0, 0x73, 0x65, 0x72, 0x76, 0x69, 0x6e, 0x67, 0x5f, 0x64, 0x65, 0x66, 0x61, 0x75, 0x6c, 0x74, 0x5f, 0x6b, 0x65, 0x72, 0x61, 0x73, 0x5f, 0x74, 0x65, 0x6e, 0x73, 0x6f, 0x72, 0x5f, 0x34, 0x3a, 0x30, 0x0, 0x0, 0x0, 0x0, 0x2, 0x0, 0x0, 0x0, 0x1, 0x0, 0x0, 0x0, 0x7, 0x0, 0x0, 0x0, 0x2, 0x0, 0x0, 0x0, 0x2c, 0x0, 0x0, 0x0, 0x10, 0x0, 0x0, 0x0, 0xc, 0x0, 0xc, 0x0, 0xb, 0x0, 0x0, 0x0, 0x0, 0x0, 0x4, 0x0, 0xc, 0x0, 0x0, 0x0, 0x19, 0x0, 0x0, 0x0, 0x0, 0x0, 0x0, 0x19, 0xc, 0x0, 0x10, 0x0, 0xf, 0x0, 0x0, 0x0, 0x8, 0x0, 0x4, 0x0, 0xc, 0x0, 0x0, 0x0, 0x9, 0x0, 0x0, 0x0, 0xc, 0x0, 0x0, 0x0, 0x0, 0x0, 0x0, 0x9};
const int crop_model_len = 9664;